<blank> 0
<unk> 1
<na> 2
<nospeech> 3
<nopunc> 4
<itn> 5
<asr> 6
<ab> 7
<af> 8
<am> 9
<ar> 10
<as> 11
<ast> 12
<az> 13
<ba> 14
<bas> 15
<be> 16
<bg> 17
<bn> 18
<bo> 19
<br> 20
<bs> 21
<ca> 22
<ckb> 23
<cnh> 24
<cs> 25
<ct> 26
<cv> 27
<cy> 28
<da> 29
<de> 30
<dv> 31
<dyu> 32
<el> 33
<en> 34
<eo> 35
<es> 36
<et> 37
<eu> 38
<fa> 39
<fi> 40
<fil> 41
<fr> 42
<fy> 43
<ga> 44
<gl> 45
<gn> 46
<gu> 47
<ha> 48
<he> 49
<hi> 50
<hr> 51
<hsb> 52
<ht> 53
<hu> 54
<hy> 55
<ia> 56
<id> 57
<ig> 58
<is> 59
<it> 60
<ja> 61
<jv> 62
<ka> 63
<kab> 64
<kk> 65
<km> 66
<kmr> 67
<kn> 68
<ko> 69
<ks> 70
<ky> 71
<lg> 72
<lij> 73
<lo> 74
<lt> 75
<ltg> 76
<lv> 77
<mdf> 78
<mhr> 79
<mk> 80
<ml> 81
<mn> 82
<mr> 83
<mrj> 84
<ms> 85
<mt> 86
<my> 87
<myv> 88
<nan> 89
<nb> 90
<ne> 91
<nhi> 92
<nl> 93
<nn> 94
<nso> 95
<oc> 96
<or> 97
<os> 98
<pa> 99
<pl> 100
<ps> 101
<pt> 102
<quy> 103
<rm> 104
<ro> 105
<ru> 106
<rw> 107
<sah> 108
<sat> 109
<sc> 110
<si> 111
<sk> 112
<skr> 113
<sl> 114
<so> 115
<sq> 116
<sr> 117
<su> 118
<sv> 119
<sw> 120
<ta> 121
<te> 122
<tg> 123
<th> 124
<ti> 125
<tig> 126
<tk> 127
<tl> 128
<tn> 129
<tok> 130
<tr> 131
<tt> 132
<tw> 133
<ug> 134
<uk> 135
<ur> 136
<uz> 137
<vi> 138
<vot> 139
<yi> 140
<yo> 141
<zgh> 142
<zh> 143
<zu> 144
<AD> 145
<AE> 146
<AF> 147
<AL> 148
<AM> 149
<ANHUI> 150
<AR> 151
<AT> 152
<AU> 153
<AZ> 154
<BA> 155
<BD> 156
<BE> 157
<BF> 158
<BG> 159
<BH> 160
<BJ> 161
<BN> 162
<BO> 163
<BR> 164
<BW> 165
<BY> 166
<CA> 167
<CD> 168
<CF> 169
<CG> 170
<CH> 171
<CI> 172
<CL> 173
<CM> 174
<CN> 175
<CO> 176
<CR> 177
<CU> 178
<CY> 179
<CZ> 180
<DE> 181
<DK> 182
<DO> 183
<DZ> 184
<EA> 185
<EC> 186
<EE> 187
<EG> 188
<ER> 189
<ES> 190
<ET> 191
<FI> 192
<FR> 193
<FUJIAN> 194
<GA> 195
<GANSU> 196
<GB> 197
<GE> 198
<GH> 199
<GLA> 200
<GN> 201
<GQ> 202
<GR> 203
<GT> 204
<GUANGDONG> 205
<GUIZHOU> 206
<GZ> 207
<HEBEI> 208
<HENAN> 209
<HK> 210
<HN> 211
<HR> 212
<HT> 213
<HU> 214
<HUBEI> 215
<HUNAN> 216
<ID> 217
<IE> 218
<IL> 219
<IN> 220
<IQ> 221
<IR> 222
<IS> 223
<IT> 224
<JIANGXI> 225
<JO> 226
<JP> 227
<KE> 228
<KG> 229
<KH> 230
<KP> 231
<KR> 232
<KW> 233
<KZ> 234
<LA> 235
<LB> 236
<LI> 237
<LIAONING> 238
<LK> 239
<LT> 240
<LU> 241
<LV> 242
<LVT> 243
<LY> 244
<MA> 245
<MC> 246
<ME> 247
<MINNAN> 248
<MK> 249
<ML> 250
<MM> 251
<MN> 252
<MT> 253
<MV> 254
<MX> 255
<MY> 256
<NG> 257
<NI> 258
<NINGXIA> 259
<NL> 260
<NO> 261
<NP> 262
<NULL> 263
<NZ> 264
<OM> 265
<PA> 266
<PE> 267
<PH> 268
<PK> 269
<PL> 270
<PR> 271
<PS> 272
<PT> 273
<PY> 274
<QA> 275
<RO> 276
<RS> 277
<RU> 278
<RW> 279
<SA> 280
<SC> 281
<SE> 282
<SG> 283
<SHAANXI> 284
<SHANDONG> 285
<SHANGHAI> 286
<SHANXI> 287
<SI> 288
<SICHUAN> 289
<SK> 290
<SM> 291
<SN> 292
<SO> 293
<SURSILV> 294
<SV> 295
<SY> 296
<TAIWAN> 297
<TD> 298
<TG> 299
<TH> 300
<TIANJIN> 301
<TJ> 302
<TM> 303
<TN> 304
<TR> 305
<TW> 306
<TZ> 307
<UA> 308
<US> 309
<UY> 310
<UZ> 311
<VALLADER> 312
<VE> 313
<VN> 314
<WENZHOU> 315
<WL> 316
<WU> 317
<XINJIANG> 318
<XIZANG> 319
<XK> 320
<YE> 321
<YUNNAN> 322
<ZA> 323
<notimestamp> 324
<0.00> 325
<0.02> 326
<0.04> 327
<0.06> 328
<0.08> 329
<0.10> 330
<0.12> 331
<0.14> 332
<0.16> 333
<0.18> 334
<0.20> 335
<0.22> 336
<0.24> 337
<0.26> 338
<0.28> 339
<0.30> 340
<0.32> 341
<0.34> 342
<0.36> 343
<0.38> 344
<0.40> 345
<0.42> 346
<0.44> 347
<0.46> 348
<0.48> 349
<0.50> 350
<0.52> 351
<0.54> 352
<0.56> 353
<0.58> 354
<0.60> 355
<0.62> 356
<0.64> 357
<0.66> 358
<0.68> 359
<0.70> 360
<0.72> 361
<0.74> 362
<0.76> 363
<0.78> 364
<0.80> 365
<0.82> 366
<0.84> 367
<0.86> 368
<0.88> 369
<0.90> 370
<0.92> 371
<0.94> 372
<0.96> 373
<0.98> 374
<1.00> 375
<1.02> 376
<1.04> 377
<1.06> 378
<1.08> 379
<1.10> 380
<1.12> 381
<1.14> 382
<1.16> 383
<1.18> 384
<1.20> 385
<1.22> 386
<1.24> 387
<1.26> 388
<1.28> 389
<1.30> 390
<1.32> 391
<1.34> 392
<1.36> 393
<1.38> 394
<1.40> 395
<1.42> 396
<1.44> 397
<1.46> 398
<1.48> 399
<1.50> 400
<1.52> 401
<1.54> 402
<1.56> 403
<1.58> 404
<1.60> 405
<1.62> 406
<1.64> 407
<1.66> 408
<1.68> 409
<1.70> 410
<1.72> 411
<1.74> 412
<1.76> 413
<1.78> 414
<1.80> 415
<1.82> 416
<1.84> 417
<1.86> 418
<1.88> 419
<1.90> 420
<1.92> 421
<1.94> 422
<1.96> 423
<1.98> 424
<2.00> 425
<2.02> 426
<2.04> 427
<2.06> 428
<2.08> 429
<2.10> 430
<2.12> 431
<2.14> 432
<2.16> 433
<2.18> 434
<2.20> 435
<2.22> 436
<2.24> 437
<2.26> 438
<2.28> 439
<2.30> 440
<2.32> 441
<2.34> 442
<2.36> 443
<2.38> 444
<2.40> 445
<2.42> 446
<2.44> 447
<2.46> 448
<2.48> 449
<2.50> 450
<2.52> 451
<2.54> 452
<2.56> 453
<2.58> 454
<2.60> 455
<2.62> 456
<2.64> 457
<2.66> 458
<2.68> 459
<2.70> 460
<2.72> 461
<2.74> 462
<2.76> 463
<2.78> 464
<2.80> 465
<2.82> 466
<2.84> 467
<2.86> 468
<2.88> 469
<2.90> 470
<2.92> 471
<2.94> 472
<2.96> 473
<2.98> 474
<3.00> 475
<3.02> 476
<3.04> 477
<3.06> 478
<3.08> 479
<3.10> 480
<3.12> 481
<3.14> 482
<3.16> 483
<3.18> 484
<3.20> 485
<3.22> 486
<3.24> 487
<3.26> 488
<3.28> 489
<3.30> 490
<3.32> 491
<3.34> 492
<3.36> 493
<3.38> 494
<3.40> 495
<3.42> 496
<3.44> 497
<3.46> 498
<3.48> 499
<3.50> 500
<3.52> 501
<3.54> 502
<3.56> 503
<3.58> 504
<3.60> 505
<3.62> 506
<3.64> 507
<3.66> 508
<3.68> 509
<3.70> 510
<3.72> 511
<3.74> 512
<3.76> 513
<3.78> 514
<3.80> 515
<3.82> 516
<3.84> 517
<3.86> 518
<3.88> 519
<3.90> 520
<3.92> 521
<3.94> 522
<3.96> 523
<3.98> 524
<4.00> 525
<4.02> 526
<4.04> 527
<4.06> 528
<4.08> 529
<4.10> 530
<4.12> 531
<4.14> 532
<4.16> 533
<4.18> 534
<4.20> 535
<4.22> 536
<4.24> 537
<4.26> 538
<4.28> 539
<4.30> 540
<4.32> 541
<4.34> 542
<4.36> 543
<4.38> 544
<4.40> 545
<4.42> 546
<4.44> 547
<4.46> 548
<4.48> 549
<4.50> 550
<4.52> 551
<4.54> 552
<4.56> 553
<4.58> 554
<4.60> 555
<4.62> 556
<4.64> 557
<4.66> 558
<4.68> 559
<4.70> 560
<4.72> 561
<4.74> 562
<4.76> 563
<4.78> 564
<4.80> 565
<4.82> 566
<4.84> 567
<4.86> 568
<4.88> 569
<4.90> 570
<4.92> 571
<4.94> 572
<4.96> 573
<4.98> 574
<5.00> 575
<5.02> 576
<5.04> 577
<5.06> 578
<5.08> 579
<5.10> 580
<5.12> 581
<5.14> 582
<5.16> 583
<5.18> 584
<5.20> 585
<5.22> 586
<5.24> 587
<5.26> 588
<5.28> 589
<5.30> 590
<5.32> 591
<5.34> 592
<5.36> 593
<5.38> 594
<5.40> 595
<5.42> 596
<5.44> 597
<5.46> 598
<5.48> 599
<5.50> 600
<5.52> 601
<5.54> 602
<5.56> 603
<5.58> 604
<5.60> 605
<5.62> 606
<5.64> 607
<5.66> 608
<5.68> 609
<5.70> 610
<5.72> 611
<5.74> 612
<5.76> 613
<5.78> 614
<5.80> 615
<5.82> 616
<5.84> 617
<5.86> 618
<5.88> 619
<5.90> 620
<5.92> 621
<5.94> 622
<5.96> 623
<5.98> 624
<6.00> 625
<6.02> 626
<6.04> 627
<6.06> 628
<6.08> 629
<6.10> 630
<6.12> 631
<6.14> 632
<6.16> 633
<6.18> 634
<6.20> 635
<6.22> 636
<6.24> 637
<6.26> 638
<6.28> 639
<6.30> 640
<6.32> 641
<6.34> 642
<6.36> 643
<6.38> 644
<6.40> 645
<6.42> 646
<6.44> 647
<6.46> 648
<6.48> 649
<6.50> 650
<6.52> 651
<6.54> 652
<6.56> 653
<6.58> 654
<6.60> 655
<6.62> 656
<6.64> 657
<6.66> 658
<6.68> 659
<6.70> 660
<6.72> 661
<6.74> 662
<6.76> 663
<6.78> 664
<6.80> 665
<6.82> 666
<6.84> 667
<6.86> 668
<6.88> 669
<6.90> 670
<6.92> 671
<6.94> 672
<6.96> 673
<6.98> 674
<7.00> 675
<7.02> 676
<7.04> 677
<7.06> 678
<7.08> 679
<7.10> 680
<7.12> 681
<7.14> 682
<7.16> 683
<7.18> 684
<7.20> 685
<7.22> 686
<7.24> 687
<7.26> 688
<7.28> 689
<7.30> 690
<7.32> 691
<7.34> 692
<7.36> 693
<7.38> 694
<7.40> 695
<7.42> 696
<7.44> 697
<7.46> 698
<7.48> 699
<7.50> 700
<7.52> 701
<7.54> 702
<7.56> 703
<7.58> 704
<7.60> 705
<7.62> 706
<7.64> 707
<7.66> 708
<7.68> 709
<7.70> 710
<7.72> 711
<7.74> 712
<7.76> 713
<7.78> 714
<7.80> 715
<7.82> 716
<7.84> 717
<7.86> 718
<7.88> 719
<7.90> 720
<7.92> 721
<7.94> 722
<7.96> 723
<7.98> 724
<8.00> 725
<8.02> 726
<8.04> 727
<8.06> 728
<8.08> 729
<8.10> 730
<8.12> 731
<8.14> 732
<8.16> 733
<8.18> 734
<8.20> 735
<8.22> 736
<8.24> 737
<8.26> 738
<8.28> 739
<8.30> 740
<8.32> 741
<8.34> 742
<8.36> 743
<8.38> 744
<8.40> 745
<8.42> 746
<8.44> 747
<8.46> 748
<8.48> 749
<8.50> 750
<8.52> 751
<8.54> 752
<8.56> 753
<8.58> 754
<8.60> 755
<8.62> 756
<8.64> 757
<8.66> 758
<8.68> 759
<8.70> 760
<8.72> 761
<8.74> 762
<8.76> 763
<8.78> 764
<8.80> 765
<8.82> 766
<8.84> 767
<8.86> 768
<8.88> 769
<8.90> 770
<8.92> 771
<8.94> 772
<8.96> 773
<8.98> 774
<9.00> 775
<9.02> 776
<9.04> 777
<9.06> 778
<9.08> 779
<9.10> 780
<9.12> 781
<9.14> 782
<9.16> 783
<9.18> 784
<9.20> 785
<9.22> 786
<9.24> 787
<9.26> 788
<9.28> 789
<9.30> 790
<9.32> 791
<9.34> 792
<9.36> 793
<9.38> 794
<9.40> 795
<9.42> 796
<9.44> 797
<9.46> 798
<9.48> 799
<9.50> 800
<9.52> 801
<9.54> 802
<9.56> 803
<9.58> 804
<9.60> 805
<9.62> 806
<9.64> 807
<9.66> 808
<9.68> 809
<9.70> 810
<9.72> 811
<9.74> 812
<9.76> 813
<9.78> 814
<9.80> 815
<9.82> 816
<9.84> 817
<9.86> 818
<9.88> 819
<9.90> 820
<9.92> 821
<9.94> 822
<9.96> 823
<9.98> 824
<10.00> 825
<10.02> 826
<10.04> 827
<10.06> 828
<10.08> 829
<10.10> 830
<10.12> 831
<10.14> 832
<10.16> 833
<10.18> 834
<10.20> 835
<10.22> 836
<10.24> 837
<10.26> 838
<10.28> 839
<10.30> 840
<10.32> 841
<10.34> 842
<10.36> 843
<10.38> 844
<10.40> 845
<10.42> 846
<10.44> 847
<10.46> 848
<10.48> 849
<10.50> 850
<10.52> 851
<10.54> 852
<10.56> 853
<10.58> 854
<10.60> 855
<10.62> 856
<10.64> 857
<10.66> 858
<10.68> 859
<10.70> 860
<10.72> 861
<10.74> 862
<10.76> 863
<10.78> 864
<10.80> 865
<10.82> 866
<10.84> 867
<10.86> 868
<10.88> 869
<10.90> 870
<10.92> 871
<10.94> 872
<10.96> 873
<10.98> 874
<11.00> 875
<11.02> 876
<11.04> 877
<11.06> 878
<11.08> 879
<11.10> 880
<11.12> 881
<11.14> 882
<11.16> 883
<11.18> 884
<11.20> 885
<11.22> 886
<11.24> 887
<11.26> 888
<11.28> 889
<11.30> 890
<11.32> 891
<11.34> 892
<11.36> 893
<11.38> 894
<11.40> 895
<11.42> 896
<11.44> 897
<11.46> 898
<11.48> 899
<11.50> 900
<11.52> 901
<11.54> 902
<11.56> 903
<11.58> 904
<11.60> 905
<11.62> 906
<11.64> 907
<11.66> 908
<11.68> 909
<11.70> 910
<11.72> 911
<11.74> 912
<11.76> 913
<11.78> 914
<11.80> 915
<11.82> 916
<11.84> 917
<11.86> 918
<11.88> 919
<11.90> 920
<11.92> 921
<11.94> 922
<11.96> 923
<11.98> 924
<12.00> 925
<12.02> 926
<12.04> 927
<12.06> 928
<12.08> 929
<12.10> 930
<12.12> 931
<12.14> 932
<12.16> 933
<12.18> 934
<12.20> 935
<12.22> 936
<12.24> 937
<12.26> 938
<12.28> 939
<12.30> 940
<12.32> 941
<12.34> 942
<12.36> 943
<12.38> 944
<12.40> 945
<12.42> 946
<12.44> 947
<12.46> 948
<12.48> 949
<12.50> 950
<12.52> 951
<12.54> 952
<12.56> 953
<12.58> 954
<12.60> 955
<12.62> 956
<12.64> 957
<12.66> 958
<12.68> 959
<12.70> 960
<12.72> 961
<12.74> 962
<12.76> 963
<12.78> 964
<12.80> 965
<12.82> 966
<12.84> 967
<12.86> 968
<12.88> 969
<12.90> 970
<12.92> 971
<12.94> 972
<12.96> 973
<12.98> 974
<13.00> 975
<13.02> 976
<13.04> 977
<13.06> 978
<13.08> 979
<13.10> 980
<13.12> 981
<13.14> 982
<13.16> 983
<13.18> 984
<13.20> 985
<13.22> 986
<13.24> 987
<13.26> 988
<13.28> 989
<13.30> 990
<13.32> 991
<13.34> 992
<13.36> 993
<13.38> 994
<13.40> 995
<13.42> 996
<13.44> 997
<13.46> 998
<13.48> 999
<13.50> 1000
<13.52> 1001
<13.54> 1002
<13.56> 1003
<13.58> 1004
<13.60> 1005
<13.62> 1006
<13.64> 1007
<13.66> 1008
<13.68> 1009
<13.70> 1010
<13.72> 1011
<13.74> 1012
<13.76> 1013
<13.78> 1014
<13.80> 1015
<13.82> 1016
<13.84> 1017
<13.86> 1018
<13.88> 1019
<13.90> 1020
<13.92> 1021
<13.94> 1022
<13.96> 1023
<13.98> 1024
<14.00> 1025
<14.02> 1026
<14.04> 1027
<14.06> 1028
<14.08> 1029
<14.10> 1030
<14.12> 1031
<14.14> 1032
<14.16> 1033
<14.18> 1034
<14.20> 1035
<14.22> 1036
<14.24> 1037
<14.26> 1038
<14.28> 1039
<14.30> 1040
<14.32> 1041
<14.34> 1042
<14.36> 1043
<14.38> 1044
<14.40> 1045
<14.42> 1046
<14.44> 1047
<14.46> 1048
<14.48> 1049
<14.50> 1050
<14.52> 1051
<14.54> 1052
<14.56> 1053
<14.58> 1054
<14.60> 1055
<14.62> 1056
<14.64> 1057
<14.66> 1058
<14.68> 1059
<14.70> 1060
<14.72> 1061
<14.74> 1062
<14.76> 1063
<14.78> 1064
<14.80> 1065
<14.82> 1066
<14.84> 1067
<14.86> 1068
<14.88> 1069
<14.90> 1070
<14.92> 1071
<14.94> 1072
<14.96> 1073
<14.98> 1074
<15.00> 1075
<15.02> 1076
<15.04> 1077
<15.06> 1078
<15.08> 1079
<15.10> 1080
<15.12> 1081
<15.14> 1082
<15.16> 1083
<15.18> 1084
<15.20> 1085
<15.22> 1086
<15.24> 1087
<15.26> 1088
<15.28> 1089
<15.30> 1090
<15.32> 1091
<15.34> 1092
<15.36> 1093
<15.38> 1094
<15.40> 1095
<15.42> 1096
<15.44> 1097
<15.46> 1098
<15.48> 1099
<15.50> 1100
<15.52> 1101
<15.54> 1102
<15.56> 1103
<15.58> 1104
<15.60> 1105
<15.62> 1106
<15.64> 1107
<15.66> 1108
<15.68> 1109
<15.70> 1110
<15.72> 1111
<15.74> 1112
<15.76> 1113
<15.78> 1114
<15.80> 1115
<15.82> 1116
<15.84> 1117
<15.86> 1118
<15.88> 1119
<15.90> 1120
<15.92> 1121
<15.94> 1122
<15.96> 1123
<15.98> 1124
<16.00> 1125
<16.02> 1126
<16.04> 1127
<16.06> 1128
<16.08> 1129
<16.10> 1130
<16.12> 1131
<16.14> 1132
<16.16> 1133
<16.18> 1134
<16.20> 1135
<16.22> 1136
<16.24> 1137
<16.26> 1138
<16.28> 1139
<16.30> 1140
<16.32> 1141
<16.34> 1142
<16.36> 1143
<16.38> 1144
<16.40> 1145
<16.42> 1146
<16.44> 1147
<16.46> 1148
<16.48> 1149
<16.50> 1150
<16.52> 1151
<16.54> 1152
<16.56> 1153
<16.58> 1154
<16.60> 1155
<16.62> 1156
<16.64> 1157
<16.66> 1158
<16.68> 1159
<16.70> 1160
<16.72> 1161
<16.74> 1162
<16.76> 1163
<16.78> 1164
<16.80> 1165
<16.82> 1166
<16.84> 1167
<16.86> 1168
<16.88> 1169
<16.90> 1170
<16.92> 1171
<16.94> 1172
<16.96> 1173
<16.98> 1174
<17.00> 1175
<17.02> 1176
<17.04> 1177
<17.06> 1178
<17.08> 1179
<17.10> 1180
<17.12> 1181
<17.14> 1182
<17.16> 1183
<17.18> 1184
<17.20> 1185
<17.22> 1186
<17.24> 1187
<17.26> 1188
<17.28> 1189
<17.30> 1190
<17.32> 1191
<17.34> 1192
<17.36> 1193
<17.38> 1194
<17.40> 1195
<17.42> 1196
<17.44> 1197
<17.46> 1198
<17.48> 1199
<17.50> 1200
<17.52> 1201
<17.54> 1202
<17.56> 1203
<17.58> 1204
<17.60> 1205
<17.62> 1206
<17.64> 1207
<17.66> 1208
<17.68> 1209
<17.70> 1210
<17.72> 1211
<17.74> 1212
<17.76> 1213
<17.78> 1214
<17.80> 1215
<17.82> 1216
<17.84> 1217
<17.86> 1218
<17.88> 1219
<17.90> 1220
<17.92> 1221
<17.94> 1222
<17.96> 1223
<17.98> 1224
<18.00> 1225
<18.02> 1226
<18.04> 1227
<18.06> 1228
<18.08> 1229
<18.10> 1230
<18.12> 1231
<18.14> 1232
<18.16> 1233
<18.18> 1234
<18.20> 1235
<18.22> 1236
<18.24> 1237
<18.26> 1238
<18.28> 1239
<18.30> 1240
<18.32> 1241
<18.34> 1242
<18.36> 1243
<18.38> 1244
<18.40> 1245
<18.42> 1246
<18.44> 1247
<18.46> 1248
<18.48> 1249
<18.50> 1250
<18.52> 1251
<18.54> 1252
<18.56> 1253
<18.58> 1254
<18.60> 1255
<18.62> 1256
<18.64> 1257
<18.66> 1258
<18.68> 1259
<18.70> 1260
<18.72> 1261
<18.74> 1262
<18.76> 1263
<18.78> 1264
<18.80> 1265
<18.82> 1266
<18.84> 1267
<18.86> 1268
<18.88> 1269
<18.90> 1270
<18.92> 1271
<18.94> 1272
<18.96> 1273
<18.98> 1274
<19.00> 1275
<19.02> 1276
<19.04> 1277
<19.06> 1278
<19.08> 1279
<19.10> 1280
<19.12> 1281
<19.14> 1282
<19.16> 1283
<19.18> 1284
<19.20> 1285
<19.22> 1286
<19.24> 1287
<19.26> 1288
<19.28> 1289
<19.30> 1290
<19.32> 1291
<19.34> 1292
<19.36> 1293
<19.38> 1294
<19.40> 1295
<19.42> 1296
<19.44> 1297
<19.46> 1298
<19.48> 1299
<19.50> 1300
<19.52> 1301
<19.54> 1302
<19.56> 1303
<19.58> 1304
<19.60> 1305
<19.62> 1306
<19.64> 1307
<19.66> 1308
<19.68> 1309
<19.70> 1310
<19.72> 1311
<19.74> 1312
<19.76> 1313
<19.78> 1314
<19.80> 1315
<19.82> 1316
<19.84> 1317
<19.86> 1318
<19.88> 1319
<19.90> 1320
<19.92> 1321
<19.94> 1322
<19.96> 1323
<19.98> 1324
<20.00> 1325
<20.02> 1326
<20.04> 1327
<20.06> 1328
<20.08> 1329
<20.10> 1330
<20.12> 1331
<20.14> 1332
<20.16> 1333
<20.18> 1334
<20.20> 1335
<20.22> 1336
<20.24> 1337
<20.26> 1338
<20.28> 1339
<20.30> 1340
<20.32> 1341
<20.34> 1342
<20.36> 1343
<20.38> 1344
<20.40> 1345
<20.42> 1346
<20.44> 1347
<20.46> 1348
<20.48> 1349
<20.50> 1350
<20.52> 1351
<20.54> 1352
<20.56> 1353
<20.58> 1354
<20.60> 1355
<20.62> 1356
<20.64> 1357
<20.66> 1358
<20.68> 1359
<20.70> 1360
<20.72> 1361
<20.74> 1362
<20.76> 1363
<20.78> 1364
<20.80> 1365
<20.82> 1366
<20.84> 1367
<20.86> 1368
<20.88> 1369
<20.90> 1370
<20.92> 1371
<20.94> 1372
<20.96> 1373
<20.98> 1374
<21.00> 1375
<21.02> 1376
<21.04> 1377
<21.06> 1378
<21.08> 1379
<21.10> 1380
<21.12> 1381
<21.14> 1382
<21.16> 1383
<21.18> 1384
<21.20> 1385
<21.22> 1386
<21.24> 1387
<21.26> 1388
<21.28> 1389
<21.30> 1390
<21.32> 1391
<21.34> 1392
<21.36> 1393
<21.38> 1394
<21.40> 1395
<21.42> 1396
<21.44> 1397
<21.46> 1398
<21.48> 1399
<21.50> 1400
<21.52> 1401
<21.54> 1402
<21.56> 1403
<21.58> 1404
<21.60> 1405
<21.62> 1406
<21.64> 1407
<21.66> 1408
<21.68> 1409
<21.70> 1410
<21.72> 1411
<21.74> 1412
<21.76> 1413
<21.78> 1414
<21.80> 1415
<21.82> 1416
<21.84> 1417
<21.86> 1418
<21.88> 1419
<21.90> 1420
<21.92> 1421
<21.94> 1422
<21.96> 1423
<21.98> 1424
<22.00> 1425
<22.02> 1426
<22.04> 1427
<22.06> 1428
<22.08> 1429
<22.10> 1430
<22.12> 1431
<22.14> 1432
<22.16> 1433
<22.18> 1434
<22.20> 1435
<22.22> 1436
<22.24> 1437
<22.26> 1438
<22.28> 1439
<22.30> 1440
<22.32> 1441
<22.34> 1442
<22.36> 1443
<22.38> 1444
<22.40> 1445
<22.42> 1446
<22.44> 1447
<22.46> 1448
<22.48> 1449
<22.50> 1450
<22.52> 1451
<22.54> 1452
<22.56> 1453
<22.58> 1454
<22.60> 1455
<22.62> 1456
<22.64> 1457
<22.66> 1458
<22.68> 1459
<22.70> 1460
<22.72> 1461
<22.74> 1462
<22.76> 1463
<22.78> 1464
<22.80> 1465
<22.82> 1466
<22.84> 1467
<22.86> 1468
<22.88> 1469
<22.90> 1470
<22.92> 1471
<22.94> 1472
<22.96> 1473
<22.98> 1474
<23.00> 1475
<23.02> 1476
<23.04> 1477
<23.06> 1478
<23.08> 1479
<23.10> 1480
<23.12> 1481
<23.14> 1482
<23.16> 1483
<23.18> 1484
<23.20> 1485
<23.22> 1486
<23.24> 1487
<23.26> 1488
<23.28> 1489
<23.30> 1490
<23.32> 1491
<23.34> 1492
<23.36> 1493
<23.38> 1494
<23.40> 1495
<23.42> 1496
<23.44> 1497
<23.46> 1498
<23.48> 1499
<23.50> 1500
<23.52> 1501
<23.54> 1502
<23.56> 1503
<23.58> 1504
<23.60> 1505
<23.62> 1506
<23.64> 1507
<23.66> 1508
<23.68> 1509
<23.70> 1510
<23.72> 1511
<23.74> 1512
<23.76> 1513
<23.78> 1514
<23.80> 1515
<23.82> 1516
<23.84> 1517
<23.86> 1518
<23.88> 1519
<23.90> 1520
<23.92> 1521
<23.94> 1522
<23.96> 1523
<23.98> 1524
<24.00> 1525
<24.02> 1526
<24.04> 1527
<24.06> 1528
<24.08> 1529
<24.10> 1530
<24.12> 1531
<24.14> 1532
<24.16> 1533
<24.18> 1534
<24.20> 1535
<24.22> 1536
<24.24> 1537
<24.26> 1538
<24.28> 1539
<24.30> 1540
<24.32> 1541
<24.34> 1542
<24.36> 1543
<24.38> 1544
<24.40> 1545
<24.42> 1546
<24.44> 1547
<24.46> 1548
<24.48> 1549
<24.50> 1550
<24.52> 1551
<24.54> 1552
<24.56> 1553
<24.58> 1554
<24.60> 1555
<24.62> 1556
<24.64> 1557
<24.66> 1558
<24.68> 1559
<24.70> 1560
<24.72> 1561
<24.74> 1562
<24.76> 1563
<24.78> 1564
<24.80> 1565
<24.82> 1566
<24.84> 1567
<24.86> 1568
<24.88> 1569
<24.90> 1570
<24.92> 1571
<24.94> 1572
<24.96> 1573
<24.98> 1574
<25.00> 1575
<25.02> 1576
<25.04> 1577
<25.06> 1578
<25.08> 1579
<25.10> 1580
<25.12> 1581
<25.14> 1582
<25.16> 1583
<25.18> 1584
<25.20> 1585
<25.22> 1586
<25.24> 1587
<25.26> 1588
<25.28> 1589
<25.30> 1590
<25.32> 1591
<25.34> 1592
<25.36> 1593
<25.38> 1594
<25.40> 1595
<25.42> 1596
<25.44> 1597
<25.46> 1598
<25.48> 1599
<25.50> 1600
<25.52> 1601
<25.54> 1602
<25.56> 1603
<25.58> 1604
<25.60> 1605
<25.62> 1606
<25.64> 1607
<25.66> 1608
<25.68> 1609
<25.70> 1610
<25.72> 1611
<25.74> 1612
<25.76> 1613
<25.78> 1614
<25.80> 1615
<25.82> 1616
<25.84> 1617
<25.86> 1618
<25.88> 1619
<25.90> 1620
<25.92> 1621
<25.94> 1622
<25.96> 1623
<25.98> 1624
<26.00> 1625
<26.02> 1626
<26.04> 1627
<26.06> 1628
<26.08> 1629
<26.10> 1630
<26.12> 1631
<26.14> 1632
<26.16> 1633
<26.18> 1634
<26.20> 1635
<26.22> 1636
<26.24> 1637
<26.26> 1638
<26.28> 1639
<26.30> 1640
<26.32> 1641
<26.34> 1642
<26.36> 1643
<26.38> 1644
<26.40> 1645
<26.42> 1646
<26.44> 1647
<26.46> 1648
<26.48> 1649
<26.50> 1650
<26.52> 1651
<26.54> 1652
<26.56> 1653
<26.58> 1654
<26.60> 1655
<26.62> 1656
<26.64> 1657
<26.66> 1658
<26.68> 1659
<26.70> 1660
<26.72> 1661
<26.74> 1662
<26.76> 1663
<26.78> 1664
<26.80> 1665
<26.82> 1666
<26.84> 1667
<26.86> 1668
<26.88> 1669
<26.90> 1670
<26.92> 1671
<26.94> 1672
<26.96> 1673
<26.98> 1674
<27.00> 1675
<27.02> 1676
<27.04> 1677
<27.06> 1678
<27.08> 1679
<27.10> 1680
<27.12> 1681
<27.14> 1682
<27.16> 1683
<27.18> 1684
<27.20> 1685
<27.22> 1686
<27.24> 1687
<27.26> 1688
<27.28> 1689
<27.30> 1690
<27.32> 1691
<27.34> 1692
<27.36> 1693
<27.38> 1694
<27.40> 1695
<27.42> 1696
<27.44> 1697
<27.46> 1698
<27.48> 1699
<27.50> 1700
<27.52> 1701
<27.54> 1702
<27.56> 1703
<27.58> 1704
<27.60> 1705
<27.62> 1706
<27.64> 1707
<27.66> 1708
<27.68> 1709
<27.70> 1710
<27.72> 1711
<27.74> 1712
<27.76> 1713
<27.78> 1714
<27.80> 1715
<27.82> 1716
<27.84> 1717
<27.86> 1718
<27.88> 1719
<27.90> 1720
<27.92> 1721
<27.94> 1722
<27.96> 1723
<27.98> 1724
<28.00> 1725
<28.02> 1726
<28.04> 1727
<28.06> 1728
<28.08> 1729
<28.10> 1730
<28.12> 1731
<28.14> 1732
<28.16> 1733
<28.18> 1734
<28.20> 1735
<28.22> 1736
<28.24> 1737
<28.26> 1738
<28.28> 1739
<28.30> 1740
<28.32> 1741
<28.34> 1742
<28.36> 1743
<28.38> 1744
<28.40> 1745
<28.42> 1746
<28.44> 1747
<28.46> 1748
<28.48> 1749
<28.50> 1750
<28.52> 1751
<28.54> 1752
<28.56> 1753
<28.58> 1754
<28.60> 1755
<28.62> 1756
<28.64> 1757
<28.66> 1758
<28.68> 1759
<28.70> 1760
<28.72> 1761
<28.74> 1762
<28.76> 1763
<28.78> 1764
<28.80> 1765
<28.82> 1766
<28.84> 1767
<28.86> 1768
<28.88> 1769
<28.90> 1770
<28.92> 1771
<28.94> 1772
<28.96> 1773
<28.98> 1774
<29.00> 1775
<29.02> 1776
<29.04> 1777
<29.06> 1778
<29.08> 1779
<29.10> 1780
<29.12> 1781
<29.14> 1782
<29.16> 1783
<29.18> 1784
<29.20> 1785
<29.22> 1786
<29.24> 1787
<29.26> 1788
<29.28> 1789
<29.30> 1790
<29.32> 1791
<29.34> 1792
<29.36> 1793
<29.38> 1794
<29.40> 1795
<29.42> 1796
<29.44> 1797
<29.46> 1798
<29.48> 1799
<29.50> 1800
<29.52> 1801
<29.54> 1802
<29.56> 1803
<29.58> 1804
<29.60> 1805
<29.62> 1806
<29.64> 1807
<29.66> 1808
<29.68> 1809
<29.70> 1810
<29.72> 1811
<29.74> 1812
<29.76> 1813
<29.78> 1814
<29.80> 1815
<29.82> 1816
<29.84> 1817
<29.86> 1818
<29.88> 1819
<29.90> 1820
<29.92> 1821
<29.94> 1822
<29.96> 1823
<29.98> 1824
<30.00> 1825
▁ 1826
。 1827
, 1828
的 1829
の 1830
啊 1831
了 1832
? 1833
我 1834
. 1835
、 1836
是 1837
你 1838
が 1839
を 1840
に 1841
は 1842
有 1843
在 1844
就 1845
人 1846
不 1847
这个 1848
呢 1849
で 1850
那 1851
就是 1852
他 1853
一 1854
吗 1855
上 1856
去 1857
好 1858
▁嗯 1859
an 1860
大 1861
이 1862
那个 1863
嗯 1864
对 1865
到 1866
呃 1867
। 1868
а 1869
我们 1870
と 1871
这 1872
и 1873
▁yang 1874
吧 1875
! 1876
要 1877
您 1878
小 1879
も 1880
у 1881
然后 1882
一个 1883
都 1884
▁di 1885
和 1886
来 1887
说 1888
会 1889
也 1890
没有 1891
i 1892
kan 1893
▁है 1894
中 1895
的话 1896
▁в 1897
가 1898
nya 1899
م 1900
ที่ 1901
呀 1902
下 1903
о 1904
ng 1905
을 1906
用 1907
三 1908
子 1909
t 1910
可以 1911
▁не 1912
打 1913
个 1914
から 1915
s 1916
点 1917
な 1918
m 1919
出 1920
я 1921
n 1922
现在 1923
▁một 1924
看 1925
还 1926
过 1927
です 1928
多 1929
a 1930
行 1931
一下 1932
路 1933
에 1934
着 1935
嘛 1936
ن 1937
か 1938
什么 1939
家 1940
▁mươi 1941
ت 1942
水 1943
不是 1944
再 1945
能 1946
し 1947
▁ke 1948
得 1949
哦 1950
做 1951
想 1952
▁ini 1953
地 1954
ね 1955
е 1956
没 1957
ไป 1958
▁что 1959
▁là 1960
还是 1961
日 1962
▁на 1963
分 1964
고 1965
啦 1966
▁itu 1967
って 1968
▁с 1969
因为 1970
高 1971
儿 1972
▁и 1973
어 1974
手 1975
二 1976
มา 1977
도 1978
▁по 1979
你们 1980
но 1981
天 1982
지 1983
h 1984
с 1985
เป็น 1986
в 1987
车 1988
ل 1989
는 1990
y 1991
る 1992
先 1993
年 1994
▁dan 1995
把 1996
给 1997
新 1998
い 1999
은 2000
她 2001
o 2002
의 2003
很 2004
又 2005
▁में 2006
ก็ 2007
▁के 2008
▁các 2009
他们 2010
事 2011
ی 2012
この 2013
แล้ว 2014
k 2015
▁và 2016
四 2017
▁hai 2018
や 2019
但是 2020
的时候 2021
▁có 2022
发 2023
p 2024
后 2025
自己 2026
▁của 2027
山 2028
跟 2029
好的 2030
g 2031
di 2032
d 2033
被 2034
т 2035
从 2036
د 2037
它 2038
开 2039
心 2040
お 2041
回 2042
س 2043
太 2044
A 2045
다 2046
为 2047
都是 2048
न 2049
ta 2050
吃 2051
ว่า 2052
c 2053
前 2054
五 2055
한 2056
嘅 2057
た 2058
诶 2059
' 2060
ได้ 2061
金 2062
да 2063
나 2064
里 2065
生 2066
已经 2067
本 2068
มี 2069
是吧 2070
买 2071
ของ 2072
老 2073
市 2074
1 2075
д 2076
した 2077
怎么 2078
를 2079
b 2080
无 2081
ش 2082
ใน 2083
走 2084
头 2085
на 2086
先生 2087
si 2088
ه 2089
する 2090
ي 2091
如果 2092
して 2093
การ 2094
da 2095
l 2096
ga 2097
その 2098
u 2099
「 2100
还有 2101
也是 2102
м 2103
ให้ 2104
기 2105
钱 2106
▁ber 2107
e 2108
所以 2109
但 2110
▁công 2111
长 2112
in 2113
区 2114
那么 2115
り 2116
て 2117
成 2118
可 2119
र 2120
▁哦 2121
นะครับ 2122
放 2123
و 2124
给我 2125
- 2126
ر 2127
可能 2128
这边 2129
▁за 2130
ไม่ 2131
▁это 2132
ли 2133
今天 2134
▁ada 2135
花 2136
▁kita 2137
เนี่ย 2138
系 2139
外 2140
▁tidak 2141
你好 2142
ल 2143
力 2144
加 2145
带 2146
ー 2147
讲 2148
でも 2149
2 2150
八 2151
海 2152
咱们 2153
، 2154
น 2155
学 2156
▁năm 2157
ы 2158
等 2159
方 2160
▁dengan 2161
▁की 2162
▁đã 2163
其实 2164
▁juga 2165
国 2166
的一个 2167
我的 2168
사 2169
▁तो 2170
म 2171
स 2172
面 2173
ا 2174
最 2175
아 2176
ら 2177
当 2178
▁người 2179
게 2180
▁untuk 2181
กัน 2182
ง 2183
จะ 2184
х 2185
ni 2186
两 2187
ม 2188
▁ba 2189
王 2190
名 2191
く 2192
需要 2193
▁हैं 2194
之 2195
口 2196
内 2197
像 2198
真 2199
เขา 2200
老师 2201
r 2202
店 2203
з 2204
н 2205
▁được 2206
听 2207
时 2208
而 2209
同 2210
」 2211
卡 2212
月 2213
では 2214
哈 2215
대 2216
别 2217
所 2218
▁کے 2219
▁вы 2220
л 2221
ya 2222
นะคะ 2223
这样 2224
li 2225
то 2226
แล้วก็ 2227
是不是 2228
자 2229
ق 2230
入 2231
ค่ะ 2232
城 2233
구 2234
公司 2235
我是 2236
로 2237
将 2238
क 2239
六 2240
度 2241
叫 2242
应该 2243
ка 2244
3 2245
送 2246
号 2247
▁नहीं 2248
ж 2249
ス 2250
さ 2251
者 2252
就是说 2253
▁cho 2254
安 2255
해 2256
という 2257
快 2258
ш 2259
แต่ 2260
не 2261
к 2262
比 2263
我就 2264
ना 2265
给您 2266
美 2267
ة 2268
之后 2269
自 2270
时间 2271
กับ 2272
ครับ 2273
▁से 2274
▁saya 2275
ب 2276
西 2277
だ 2278
何 2279
さん 2280
▁dari 2281
ف 2282
▁그 2283
白 2284
ان 2285
▁không 2286
▁với 2287
通 2288
S 2289
นี้ 2290
とか 2291
ع 2292
よ 2293
요 2294
南 2295
ز 2296
คือ 2297
▁کی 2298
시 2299
不要 2300
才 2301
问题 2302
一些 2303
谁 2304
性 2305
这种 2306
向 2307
法 2308
让 2309
全 2310
ก 2311
г 2312
道 2313
转 2314
ti 2315
爱 2316
はい 2317
پ 2318
▁میں 2319
定 2320
起 2321
▁ال 2322
出来 2323
き 2324
正 2325
ですね 2326
q 2327
ने 2328
里面 2329
与 2330
今 2331
▁और 2332
त 2333
张 2334
ہ 2335
之前 2336
食 2337
万 2338
อยู่ 2339
คน 2340
นะ 2341
▁dia 2342
▁trong 2343
请 2344
й 2345
位 2346
重 2347
明 2348
部 2349
인 2350
서 2351
几 2352
话 2353
化 2354
п 2355
一点 2356
ʻ 2357
工作 2358
女 2359
数 2360
找 2361
哎 2362
には 2363
以 2364
▁भी 2365
ส 2366
线 2367
死 2368
光 2369
门 2370
ma 2371
这些 2372
平 2373
す 2374
na 2375
好吧 2376
你的 2377
拿 2378
ch 2379
わ 2380
ん 2381
大家 2382
lah 2383
合 2384
▁को 2385
만 2386
▁bisa 2387
东 2388
村 2389
玩 2390
▁как 2391
元 2392
f 2393
اس 2394
ka 2395
at 2396
只 2397
机 2398
▁akan 2399
ちょっと 2400
la 2401
知 2402
あ 2403
v 2404
以后 2405
และ 2406
에서 2407
这是 2408
火 2409
▁от 2410
北 2411
交 2412
七 2413
气 2414
电话 2415
给你 2416
身 2417
住 2418
不能 2419
的人 2420
प 2421
บ 2422
re 2423
O 2424
ك 2425
孩子 2426
ตัว 2427
র 2428
ました 2429
ну 2430
我觉得 2431
这么 2432
sa 2433
直接 2434
更 2435
台 2436
ます 2437
ない 2438
中国 2439
เลย 2440
ด 2441
มัน 2442
▁про 2443
ร 2444
ь 2445
龙 2446
つ 2447
报 2448
的这个 2449
▁ہے۔ 2450
ra 2451
▁se 2452
开始 2453
리 2454
これ 2455
比较 2456
唉 2457
정 2458
知道 2459
九 2460
物 2461
คุณ 2462
相 2463
ки 2464
もう 2465
▁при 2466
B 2467
ю 2468
手机 2469
的那个 2470
▁я 2471
▁những 2472
▁dân 2473
马 2474
文 2475
▁đến 2476
保 2477
我现在 2478
体 2479
是吗 2480
ات 2481
ال 2482
gi 2483
华 2484
对吧 2485
み 2486
有没有 2487
日本 2488
原 2489
红 2490
伊 2491
田 2492
ト 2493
nh 2494
真的 2495
ま 2496
al 2497
而且 2498
哪 2499
为什么 2500
야 2501
ri 2502
风 2503
주 2504
清 2505
った 2506
ла 2507
نا 2508
我想 2509
いい 2510
ं 2511
进行 2512
进 2513
ย 2514
完 2515
问 2516
수 2517
▁dua 2518
tapi 2519
公 2520
▁ra 2521
전 2522
单 2523
ini 2524
4 2525
ब 2526
谢谢 2527
楼 2528
▁का 2529
ル 2530
动 2531
写 2532
え 2533
总 2534
▁dalam 2535
主 2536
情 2537
房 2538
接 2539
เรา 2540
▁ب 2541
目前 2542
李 2543
的是 2544
▁về 2545
そして 2546
하는 2547
ku 2548
▁то 2549
se 2550
x 2551
有一个 2552
ন 2553
스 2554
하 2555
خ 2556
う 2557
ความ 2558
ang 2559
▁này 2560
ک 2561
ح 2562
干 2563
于 2564
代 2565
по 2566
そう 2567
佢 2568
拉 2569
▁вот 2570
信 2571
觉得 2572
時 2573
咱 2574
lar 2575
收 2576
ล 2577
街 2578
ी 2579
课 2580
量 2581
ต้อง 2582
流 2583
▁nhân 2584
하고 2585
过来 2586
江 2587
چ 2588
ter 2589
▁sudah 2590
我要 2591
▁cái 2592
ทาง 2593
▁per 2594
算 2595
lo 2596
取 2597
・ 2598
作 2599
换 2600
你说 2601
十 2602
▁ya 2603
少 2604
yang 2605
та 2606
▁거 2607
▁sa 2608
いた 2609
▁ngày 2610
บอกว่า 2611
期 2612
ทํา 2613
イ 2614
ет 2615
林 2616
te 2617
しました 2618
半 2619
目 2620
ク 2621
包 2622
非常 2623
▁سے 2624
省 2625
할 2626
dan 2627
看到 2628
リ 2629
不会 2630
次 2631
ज 2632
ов 2633
C 2634
ے 2635
ता 2636
그 2637
管 2638
▁để 2639
感 2640
▁quan 2641
边 2642
제 2643
ह 2644
le 2645
▁orang 2646
早 2647
장 2648
空 2649
场 2650
ア 2651
لا 2652
该 2653
服务 2654
ので 2655
▁hiện 2656
▁हो 2657
ко 2658
I 2659
▁apa 2660
改 2661
品 2662
見 2663
ить 2664
5 2665
好像 2666
ด้วย 2667
▁tại 2668
电 2669
मा 2670
立 2671
ン 2672
व 2673
不了 2674
信息 2675
▁cũng 2676
ты 2677
明天 2678
▁喂 2679
女士 2680
两个 2681
县 2682
感觉 2683
书 2684
不知道 2685
镇 2686
ни 2687
라 2688
ом 2689
种 2690
bi 2691
越 2692
ما 2693
您的 2694
▁все 2695
ro 2696
▁động 2697
神 2698
ல 2699
不过 2700
我在 2701
见 2702
▁کو 2703
으로 2704
世界 2705
我说 2706
落 2707
言 2708
微信 2709
T 2710
▁me 2711
อะไร 2712
连 2713
ч 2714
он 2715
一直 2716
ку 2717
教 2718
联系 2719
妈妈 2720
ية 2721
ar 2722
特 2723
工 2724
▁thành 2725
▁वो 2726
咁 2727
あの 2728
他的 2729
理 2730
或者 2731
那边 2732
▁و 2733
ดี 2734
再见 2735
木 2736
▁к 2737
局 2738
办 2739
tu 2740
▁bộ 2741
生活 2742
▁trên 2743
ट 2744
과 2745
当时 2746
일 2747
雨 2748
▁chín 2749
▁کا 2750
东西 2751
野 2752
周 2753
E 2754
很多 2755
弄 2756
▁एक 2757
và 2758
起来 2759
▁من 2760
de 2761
▁đó 2762
め 2763
查 2764
色 2765
ем 2766
人家 2767
ป 2768
تا 2769
ing 2770
了吗 2771
को 2772
ма 2773
なんか 2774
man 2775
б 2776
银行 2777
▁bị 2778
河 2779
จาก 2780
噶 2781
卖 2782
利 2783
부 2784
▁đồng 2785
un 2786
朋友 2787
味 2788
lan 2789
▁뭐 2790
▁हाँ 2791
通过 2792
好了 2793
▁thì 2794
申请 2795
意 2796
▁раз 2797
▁ter 2798
不用 2799
▁так 2800
唔 2801
装 2802
원 2803
第一 2804
▁trăm 2805
歌 2806
だった 2807
黄 2808
க 2809
站 2810
希望 2811
多少 2812
掉 2813
▁na 2814
▁안 2815
گ 2816
▁nhiều 2817
费 2818
ой 2819
ド 2820
▁cơ 2821
ke 2822
비 2823
米 2824
カ 2825
声 2826
搞 2827
ah 2828
▁tỉnh 2829
ों 2830
毛 2831
▁satu 2832
ها 2833
喜欢 2834
菜 2835
啥 2836
▁आ 2837
到了 2838
已 2839
上面 2840
ค 2841
难 2842
哥 2843
选 2844
我也 2845
ว 2846
那我 2847
一次 2848
字 2849
က 2850
有点 2851
差 2852
▁định 2853
ा 2854
ग 2855
▁số 2856
今年 2857
强 2858
ть 2859
रा 2860
表 2861
ki 2862
我这边 2863
医院 2864
网 2865
未 2866
▁việc 2867
宝 2868
면 2869
те 2870
ba 2871
द 2872
只有 2873
倒 2874
星 2875
им 2876
球 2877
石 2878
坐 2879
います 2880
▁nước 2881
▁ko 2882
G 2883
เอา 2884
んだ 2885
का 2886
往 2887
▁mà 2888
▁अ 2889
อ 2890
ले 2891
▁ही 2892
ada 2893
うん 2894
▁છે 2895
热 2896
退 2897
မ 2898
ме 2899
晚上 2900
园 2901
長 2902
▁đối 2903
笑 2904
回来 2905
ท 2906
ผม 2907
使用 2908
特别 2909
一样 2910
े 2911
肉 2912
за 2913
▁он 2914
▁o 2915
是什么 2916
反正 2917
男 2918
▁bo 2919
建 2920
使 2921
民 2922
상 2923
▁tháng 2924
解 2925
ご 2926
コ 2927
帮 2928
跑 2929
科 2930
▁ở 2931
▁पर 2932
ம் 2933
ص 2934
院 2935
오 2936
▁في 2937
신 2938
你就 2939
北京 2940
lu 2941
▁bốn 2942
ক 2943
ин 2944
您好 2945
最后 2946
们 2947
▁из 2948
处理 2949
th 2950
ไม่ได้ 2951
▁nhà 2952
我们的 2953
过去 2954
▁мы 2955
▁thông 2956
улица 2957
거 2958
ло 2959
只是 2960
▁làm 2961
关 2962
치 2963
▁thể 2964
마 2965
低 2966
دا 2967
ে 2968
其他 2969
片 2970
にも 2971
情况 2972
直 2973
▁vụ 2974
眼 2975
소 2976
能够 2977
班 2978
kalau 2979
во 2980
处 2981
▁điều 2982
调 2983
▁atau 2984
また 2985
打开 2986
咯 2987
▁есть 2988
你是 2989
你要 2990
▁дробь 2991
提 2992
として 2993
留 2994
条 2995
也不 2996
▁như 2997
า 2998
er 2999
乐 3000
ある 3001
▁so 3002
men 3003
сто 3004
P 3005
ور 3006
▁lagi 3007
우 3008
一起 3009
▁từ 3010
近 3011
云 3012
油 3013
到时候 3014
mi 3015
超 3016
など 3017
ตํารวจ 3018
ak 3019
ดู 3020
pa 3021
เห็น 3022
อีก 3023
反 3024
帮您 3025
桥 3026
▁به 3027
두 3028
就可以 3029
▁vào 3030
6 3031
自己的 3032
وں 3033
ше 3034
ca 3035
▁कर 3036
ম 3037
学校 3038
▁hội 3039
р 3040
一般 3041
のは 3042
排 3043
স 3044
看看 3045
z 3046
んで 3047
军 3048
▁tak 3049
比如说 3050
变 3051
青 3052
▁nam 3053
後 3054
其 3055
拍 3056
▁نے 3057
ર 3058
ный 3059
款 3060
队 3061
いて 3062
ал 3063
bu 3064
வ 3065
以前 3066
中心 3067
ся 3068
刚才 3069
れ 3070
▁था 3071
會 3072
洗 3073
공 3074
价 3075
すごい 3076
まで 3077
to 3078
大学 3079
무 3080
黑 3081
那你 3082
ห 3083
▁men 3084
時間 3085
หน้า 3086
気 3087
だから 3088
▁mereka 3089
夜 3090
受 3091
香 3092
N 3093
▁कि 3094
刘 3095
ja 3096
นี่ 3097
私 3098
ッ 3099
▁adalah 3100
เรื่อง 3101
7 3102
常 3103
보 3104
肯定 3105
如 3106
德 3107
マ 3108
ар 3109
와 3110
วัน 3111
音 3112
▁الم 3113
します 3114
血 3115
is 3116
แบบ 3117
w 3118
นะฮะ 3119
ର 3120
▁nghìn 3121
っ 3122
好好 3123
こと 3124
いる 3125
성 3126
给他 3127
▁chính 3128
या 3129
▁hành 3130
รถ 3131
レ 3132
▁수 3133
U 3134
네 3135
初 3136
ो 3137
บอก 3138
ถ้า 3139
零 3140
▁sự 3141
学习 3142
客户 3143
商 3144
阿 3145
雪 3146
最近 3147
有个 3148
▁응 3149
川 3150
陈 3151
飞 3152
阳 3153
들 3154
集 3155
мо 3156
▁P 3157
▁đi 3158
怎么样 3159
挺 3160
级 3161
ми 3162
选择 3163
▁со 3164
是在 3165
保险 3166
考 3167
ج 3168
진 3169
ன் 3170
▁aku 3171
gan 3172
▁trường 3173
D 3174
贵 3175
某 3176
선 3177
忙 3178
ia 3179
鱼 3180
市场 3181
mu 3182
ปี 3183
请问 3184
双 3185
▁quốc 3186
▁lebih 3187
那种 3188
皮 3189
ラ 3190
▁kalau 3191
远 3192
▁아 3193
के 3194
约 3195
朝 3196
▁sẽ 3197
急 3198
看一下 3199
制 3200
ば 3201
من 3202
वा 3203
▁అ 3204
▁pada 3205
▁harus 3206
咧 3207
น้ํา 3208
▁پر 3209
一年 3210
如何 3211
غ 3212
世 3213
地方 3214
as 3215
下来 3216
按 3217
实 3218
不好 3219
데 3220
[ 3221
▁gia 3222
战 3223
▁до 3224
▁می 3225
wa 3226
官 3227
▁puluh 3228
的话呢 3229
している 3230
这样的 3231
整 3232
图 3233
指 3234
だけ 3235
ই 3236
จริง 3237
▁哎 3238
▁menjadi 3239
ం 3240
こ 3241
itu 3242
▁phải 3243
প 3244
▁hợp 3245
的吗 3246
病 3247
ยัง 3248
一天 3249
我都 3250
▁khi 3251
出去 3252
古 3253
件 3254
修 3255
▁đầu 3256
州 3257
trong 3258
大概 3259
อย่าง 3260
▁под 3261
▁thời 3262
ला 3263
ต 3264
▁tra 3265
他说 3266
却 3267
saya 3268
就说 3269
活 3270
形 3271
案 3272
ロ 3273
on 3274
传 3275
让我 3276
我我 3277
▁meng 3278
▁tế 3279
酒 3280
可是 3281
发现 3282
▁lại 3283
ce 3284
了解 3285
tan 3286
유 3287
完了 3288
ใช้ 3289
8 3290
これは 3291
▁lượng 3292
ار 3293
けど 3294
ام 3295
安全 3296
离 3297
문 3298
刚 3299
အ 3300
块 3301
री 3302
全部 3303
am 3304
me 3305
那些 3306
▁sáu 3307
系统 3308
มาก 3309
がある 3310
▁लिए 3311
求 3312
客 3313
де 3314
命 3315
喝 3316
▁phát 3317
那您 3318
个人 3319
ল 3320
冷 3321
推 3322
ব 3323
社会 3324
ত 3325
有什么 3326
足 3327
य 3328
เพราะว่า 3329
都有 3330
你看 3331
货 3332
应该是 3333
帮我 3334
由 3335
บ้าน 3336
kita 3337
▁trung 3338
切 3339
深 3340
ใจ 3341
or 3342
别人 3343
もの 3344
tr 3345
را 3346
세 3347
政府 3348
じ 3349
話 3350
ต่อ 3351
药 3352
ရ 3353
对于 3354
го 3355
游戏 3356
ते 3357
는데 3358
вы 3359
นั้น 3360
న 3361
应 3362
只能 3363
百 3364
us 3365
ей 3366
假 3367
提供 3368
▁thực 3369
ne 3370
hi 3371
牛 3372
播放 3373
冇 3374
경 3375
っていう 3376
达 3377
それ 3378
因为我 3379
im 3380
昨天 3381
do 3382
是一个 3383
ถึง 3384
哪个 3385
かな 3386
ซึ่ง 3387
لی 3388
▁chức 3389
こう 3390
▁sama 3391
أ 3392
节 3393
准备 3394
▁tu 3395
您这边 3396
克 3397
注意 3398
ผู้ 3399
ের 3400
管理 3401
武 3402
格 3403
タ 3404
ถูก 3405
드 3406
▁若琪 3407
или 3408
са 3409
pi 3410
バ 3411
不需要 3412
便 3413
▁hàng 3414
ु 3415
打电话 3416
企业 3417
他是 3418
产品 3419
器 3420
▁tác 3421
ก่อน 3422
存 3423
啲 3424
配 3425
단 3426
やっぱり 3427
연 3428
操作 3429
du 3430
土 3431
因 3432
श 3433
记 3434
ส่วน 3435
च 3436
只要 3437
▁ma 3438
نے 3439
ै 3440
▁बहुत 3441
แบบนี้ 3442
后面 3443
นาย 3444
感じ 3445
间 3446
▁xã 3447
的问题 3448
第二 3449
满 3450
此 3451
ตาม 3452
松 3453
га 3454
哪里 3455
首 3456
当然 3457
支付宝 3458
停 3459
饭 3460
▁tám 3461
ber 3462
10 3463
▁там 3464
▁bảy 3465
付 3466
のか 3467
扣 3468
ur 3469
戦 3470
ム 3471
ط 3472
第 3473
なかった 3474
ミ 3475
活动 3476
это 3477
景 3478
照 3479
▁об 3480
这里 3481
K 3482
まあ 3483
▁ہے 3484
▁آ 3485
ลูก 3486
要求 3487
9 3488
▁memang 3489
▁کر 3490
何か 3491
块钱 3492
ั 3493
亲 3494
說 3495
▁tượng 3496
穿 3497
断 3498
票 3499
刚刚 3500
证 3501
த 3502
春 3503
▁же 3504
ju 3505
运 3506
▁học 3507
された 3508
领 3509
率 3510
▁ہیں۔ 3511
能不能 3512
▁banyak 3513
顶 3514
ной 3515
؟ 3516
내 3517
包括 3518
守 3519
20 3520
ند 3521
▁cao 3522
でした 3523
也可以 3524
동 3525
▁địa 3526
ทั้ง 3527
▁bệnh 3528
跟我 3529
ти 3530
组 3531
继续 3532
พี่ 3533
間 3534
안 3535
经 3536
۔ 3537
ए 3538
車 3539
所以说 3540
ва 3541
หนึ่ง 3542
ные 3543
พ 3544
ется 3545
M 3546
源 3547
显示 3548
不错 3549
ก็คือ 3550
▁macam 3551
ish 3552
方便 3553
▁bảo 3554
三十 3555
好吗 3556
君 3557
▁تو 3558
แม่ 3559
el 3560
シ 3561
▁phòng 3562
น้อง 3563
しています 3564
短 3565
pe 3566
兴 3567
รับ 3568
每 3569
ok 3570
▁در 3571
玉 3572
式 3573
ນ 3574
ところ 3575
ра 3576
也有 3577
ль 3578
了一个 3579
员 3580
甲 3581
nah 3582
狗 3583
ブ 3584
че 3585
救 3586
士 3587
เงิน 3588
即 3589
um 3590
hu 3591
不到 3592
▁क्या 3593
后来 3594
演 3595
并 3596
ول 3597
▁nó 3598
ил 3599
▁для 3600
一个人 3601
ක 3602
▁они 3603
んです 3604
ho 3605
结果 3606
미 3607
् 3608
参加 3609
พอ 3610
杨 3611
▁lý 3612
晚 3613
下午 3614
▁hơn 3615
મ 3616
] 3617
๒ 3618
ке 3619
नी 3620
▁masih 3621
ون 3622
▁очень 3623
ම 3624
曲 3625
どう 3626
조 3627
杀 3628
ری 3629
تر 3630
福 3631
▁tersebut 3632
防 3633
服 3634
영 3635
▁karena 3636
较 3637
就会 3638
▁hình 3639
▁chỉ 3640
脚 3641
有人 3642
ф 3643
gu 3644
화 3645
ор 3646
ды 3647
及 3648
เพราะ 3649
對 3650
▁đang 3651
そんな 3652
து 3653
才能 3654
您是 3655
不行 3656
座 3657
思 3658
方面 3659
安排 3660
俺 3661
事情 3662
影 3663
草 3664
唱 3665
▁ने 3666
il 3667
咗 3668
室 3669
หา 3670
ウ 3671
称 3672
▁lực 3673
▁ka 3674
什么时候 3675
Y 3676
波 3677
ning 3678
团 3679
اب 3680
养 3681
减 3682
発 3683
说话 3684
正常 3685
▁pak 3686
سا 3687
▁его 3688
为了 3689
部分 3690
确实 3691
读 3692
斯 3693
爸爸 3694
▁sản 3695
错 3696
▁thế 3697
衣 3698
ных 3699
灯 3700
้ 3701
ru 3702
మ 3703
刷 3704
ව 3705
怪 3706
▁phương 3707
主要 3708
人が 3709
画 3710
▁oleh 3711
▁hari 3712
▁मैं 3713
โดย 3714
来了 3715
以上 3716
dia 3717
派 3718
▁nay 3719
▁막 3720
精 3721
ست 3722
许 3723
布 3724
整个 3725
▁будет 3726
▁việt 3727
▁dịch 3728
回家 3729
จ 3730
谈 3731
秋 3732
共 3733
になる 3734
对不对 3735
フ 3736
还没 3737
個 3738
ங்க 3739
▁tin 3740
茶 3741
▁seperti 3742
我看 3743
▁bu 3744
我们这边 3745
ના 3746
ol 3747
关系 3748
▁nhận 3749
▁kami 3750
ය 3751
著 3752
姐 3753
재 3754
发展 3755
sh 3756
让他 3757
成功 3758
بر 3759
نى 3760
it 3761
来说 3762
적 3763
ர் 3764
▁нас 3765
asi 3766
或 3767
都不 3768
en 3769
ая 3770
睡 3771
ная 3772
ち 3773
失 3774
來 3775
เข้า 3776
是否 3777
ని 3778
あっ 3779
ภาพ 3780
▁con 3781
都没有 3782
表示 3783
キ 3784
려 3785
破 3786
▁sinh 3787
关注 3788
各 3789
解决 3790
题 3791
ок 3792
学生 3793
ナ 3794
现 3795
மா 3796
短信 3797
角 3798
夏 3799
lik 3800
去了 3801
国家 3802
エ 3803
望 3804
背 3805
ขอ 3806
チ 3807
๓ 3808
▁mo 3809
▁do 3810
ட்டு 3811
러 3812
还要 3813
抢 3814
▁tiếp 3815
么 3816
실 3817
ле 3818
風 3819
我这 3820
па 3821
ですよね 3822
ਰ 3823
▁अच्छा 3824
▁rất 3825
睇 3826
мы 3827
俩 3828
我知道 3829
具体 3830
▁mình 3831
いや 3832
្ 3833
伤 3834
ре 3835
翻 3836
如果说 3837
一定要 3838
と思います 3839
补 3840
ลง 3841
完全 3842
ذ 3843
套 3844
▁일 3845
师 3846
st 3847
左右 3848
了吧 3849
嘞 3850
▁phố 3851
支持 3852
料 3853
ит 3854
เ 3855
酒店 3856
型 3857
▁toàn 3858
上海 3859
無 3860
▁если 3861
▁бы 3862
オ 3863
ர 3864
待 3865
▁dụng 3866
ช 3867
湖 3868
ля 3869
正在 3870
本当に 3871
投 3872
ख 3873
一定 3874
no 3875
至 3876
千 3877
理解 3878
차 3879
借 3880
▁আ 3881
跳 3882
вер 3883
久 3884
税 3885
について 3886
바 3887
트 3888
そうですね 3889
三个 3890
십 3891
这一 3892
от 3893
ий 3894
▁أ 3895
办理 3896
▁em 3897
记者 3898
很好 3899
罗 3900
段 3901
▁qua 3902
价格 3903
หรือ 3904
苦 3905
小区 3906
했다 3907
试 3908
底 3909
క 3910
经济 3911
▁меня 3912
per 3913
स् 3914
uh 3915
我不 3916
去年 3917
奥 3918
ия 3919
やって 3920
进去 3921
任 3922
▁mới 3923
那就 3924
방 3925
我去 3926
若 3927
へ 3928
板 3929
贷款 3930
こちら 3931
▁мне 3932
여 3933
步 3934
び 3935
上班 3936
就可以了 3937
া 3938
▁cấp 3939
▁噢 3940
兵 3941
мен 3942
还款 3943
▁जो 3944
怕 3945
程 3946
是有 3947
回去 3948
ட 3949
وا 3950
根 3951
今日 3952
教育 3953
ين 3954
bang 3955
▁lain 3956
ตอนนี้ 3957
钟 3958
▁khu 3959
ර 3960
挂 3961
同时 3962
คุณผู้ชม 3963
東京 3964
물 3965
になって 3966
یا 3967
ро 3968
样 3969
▁喂你好 3970
▁از 3971
▁уже 3972
乱 3973
非 3974
一百 3975
よね 3976
人的 3977
明白 3978
ц 3979
▁pe 3980
ده 3981
kon 3982
或者是 3983
本人 3984
พระ 3985
ก็เลย 3986
账户 3987
ый 3988
▁nghiệp 3989
そうです 3990
よく 3991
追 3992
▁anh 3993
ક 3994
沙 3995
む 3996
แ 3997
ि 3998
▁嗯嗯 3999
위 4000
▁vi 4001
เพื่อ 4002
يا 4003
都可以 4004
治 4005
วันนี้ 4006
▁tổ 4007
до 4008
명 4009
▁ban 4010
▁اور 4011
乡 4012
另外 4013
影响 4014
▁오 4015
ба 4016
▁giao 4017
所有 4018
र् 4019
妈 4020
yo 4021
富 4022
ขึ้น 4023
▁cả 4024
电脑 4025
▁rumah 4026
गा 4027
▁您好 4028
宁 4029
▁vị 4030
ах 4031
▁ah 4032
果 4033
友 4034
ны 4035
庄 4036
这个是 4037
▁thị 4038
งาน 4039
की 4040
▁அ 4041
▁va 4042
ただ 4043
ड 4044
▁còn 4045
值 4046
清楚 4047
फ 4048
▁있 4049
降 4050
喂 4051
联 4052
H 4053
速 4054
▁anak 4055
і 4056
的话是 4057
ली 4058
研究 4059
屋 4060
▁nhất 4061
发生 4062
到底 4063
ตา 4064
ती 4065
对对对 4066
니 4067
▁было 4068
のが 4069
дом 4070
▁xe 4071
几个 4072
県 4073
ung 4074
सा 4075
ту 4076
您可以 4077
脸 4078
呗 4079
▁हम 4080
有些 4081
島 4082
志 4083
人员 4084
▁triển 4085
▁ஆ 4086
lari 4087
せ 4088
分期 4089
业 4090
관 4091
〈 4092
房子 4093
巴 4094
ରେ 4095
鞋 4096
城市 4097
地址 4098
্ 4099
要去 4100
모 4101
▁pháp 4102
じゃあ 4103
牌 4104
认为 4105
▁trình 4106
ત 4107
然后呢 4108
ша 4109
引 4110
视 4111
ие 4112
内容 4113
ую 4114
你可以 4115
念 4116
衣服 4117
平台 4118
迄 4119
ста 4120
et 4121
▁viên 4122
ди 4123
会有 4124
居 4125
靠 4126
できる 4127
素 4128
這 4129
是这样的 4130
▁один 4131
▁jadi 4132
ো 4133
تی 4134
க்க 4135
稍后 4136
▁sangat 4137
▁که 4138
бо 4139
梦 4140
đ 4141
不好意思 4142
版 4143
あれ 4144
快递 4145
機 4146
尔 4147
در 4148
首先 4149
▁အ 4150
岁 4151
〉 4152
ท่าน 4153
▁근데 4154
みたいな 4155
산 4156
ている 4157
支付 4158
▁ca 4159
▁phạm 4160
重新 4161
党 4162
的一些 4163
原来 4164
cha 4165
语 4166
游 4167
▁pen 4168
业务 4169
没事 4170
▁huyện 4171
ض 4172
ハ 4173
တ 4174
ू 4175
▁chủ 4176
▁hà 4177
メ 4178
با 4179
ai 4180
▁văn 4181
ې 4182
해서 4183
場 4184
ئ 4185
រ 4186
盘 4187
ニ 4188
树 4189
痛 4190
তে 4191
的时间 4192
买了 4193
ไว้ 4194
ツ 4195
ать 4196
一千 4197
ビ 4198
ய 4199
ٹ 4200
记录 4201
多少钱 4202
bar 4203
▁пере 4204
▁cảnh 4205
J 4206
▁때 4207
也没有 4208
વા 4209
san 4210
番 4211
당 4212
登 4213
ру 4214
강 4215
▁tiga 4216
账号 4217
過 4218
考虑 4219
娘 4220
サ 4221
咩 4222
কে 4223
咋 4224
▁कुछ 4225
跟你 4226
để 4227
tar 4228
▁tahun 4229
兰 4230
差不多 4231
간 4232
上的 4233
ส่ง 4234
ず 4235
학 4236
▁T 4237
▁kepada 4238
英语 4239
专 4240
そういう 4241
му 4242
ល 4243
ぶ 4244
买的 4245
家里 4246
▁saja 4247
▁sát 4248
aku 4249
グ 4250
▁गया 4251
발 4252
입 4253
бе 4254
ズ 4255
생 4256
उन 4257
ого 4258
事件 4259
یہ 4260
ర 4261
же 4262
パ 4263
猫 4264
充 4265
这样子 4266
端 4267
ใคร 4268
頭 4269
min 4270
永 4271
untuk 4272
技术 4273
呐 4274
还没有 4275
क् 4276
然后我 4277
go 4278
▁xuất 4279
ji 4280
ああ 4281
ような 4282
モ 4283
ir 4284
真是 4285
谷 4286
▁ang 4287
ge 4288
à 4289
是个 4290
න 4291
▁đề 4292
さんが 4293
اء 4294
ө 4295
ст 4296
▁bình 4297
计 4298
厂 4299
▁pun 4300
政 4301
它是 4302
▁दो 4303
V 4304
▁giá 4305
想要 4306
▁indonesia 4307
์ 4308
감 4309
的呀 4310
theo 4311
체 4312
▁đ 4313
招 4314
他就 4315
▁đường 4316
意思 4317
Q 4318
あと 4319
现场 4320
選手 4321
丽 4322
义 4323
نی 4324
方式 4325
▁অ 4326
折 4327
فر 4328
五十 4329
限 4330
秒 4331
सी 4332
ী 4333
环 4334
密 4335
배 4336
ということで 4337
▁чтобы 4338
중 4339
ి 4340
su 4341
▁嗯好的 4342
▁saat 4343
敢 4344
权 4345
都会 4346
收到 4347
식 4348
把这个 4349
ន 4350
▁mau 4351
要是 4352
残 4353
合同 4354
க்கு 4355
▁با 4356
警 4357
▁tôi 4358
井 4359
视频 4360
▁आप 4361
代表 4362
ல் 4363
▁она 4364
汉 4365
容 4366
做的 4367
دى 4368
二十 4369
apa 4370
鸡 4371
ということです 4372
ですか 4373
上去 4374
ろ 4375
返 4376
про 4377
жа 4378
人の 4379
船 4380
寄 4381
các 4382
け 4383
ু 4384
说了 4385
喜 4386
▁tahu 4387
哇 4388
ન 4389
都没 4390
标 4391
난 4392
심 4393
점 4394
聊 4395
温 4396
▁gitu 4397
汽车 4398
আমি 4399
女性 4400
宝贝 4401
반 4402
左 4403
▁когда 4404
户 4405
▁うん 4406
よう 4407
現在 4408
不想 4409
られる 4410
原因 4411
虽然 4412
強 4413
粉 4414
از 4415
ры 4416
▁نہیں 4417
喺 4418
開 4419
▁просто 4420
ве 4421
что 4422
래 4423
▁pa 4424
వ 4425
있 4426
▁độ 4427
ています 4428
▁رو 4429
さんの 4430
英 4431
▁بھی 4432
ット 4433
اد 4434
ют 4435
每天 4436
▁tăng 4437
▁án 4438
저 4439
L 4440
es 4441
列 4442
让你 4443
出现 4444
微 4445
ออก 4446
ha 4447
▁tình 4448
免 4449
▁嗯对 4450
لى 4451
身体 4452
▁الأ 4453
จังหวัด 4454
▁그런 4455
额 4456
重要 4457
数据 4458
ジ 4459
ного 4460
愛 4461
能力 4462
่ 4463
들이 4464
家长 4465
▁kinh 4466
过了 4467
▁to 4468
ට 4469
一种 4470
顺 4471
pen 4472
▁کہ 4473
มีการ 4474
▁못 4475
▁ہو 4476
存在 4477
▁रहा 4478
رو 4479
极 4480
円 4481
ぎ 4482
这次 4483
ប 4484
的地方 4485
रे 4486
じゃない 4487
在哪里 4488
▁nội 4489
▁hanya 4490
▁थी 4491
▁semua 4492
用户 4493
是我 4494
幺 4495
三百 4496
건 4497
的东西 4498
▁para 4499
▁있는 4500
麻烦 4501
ду 4502
我这个 4503
ને 4504
群 4505
母 4506
文化 4507
客服 4508
塔 4509
突然 4510
良 4511
▁九四二零 4512
▁على 4513
ာ 4514
余 4515
抓 4516
观 4517
ڈ 4518
書 4519
笔 4520
▁வந்து 4521
نىڭ 4522
按照 4523
鬼 4524
儿子 4525
类 4526
ກ 4527
当中 4528
项目 4529
层 4530
んですけど 4531
美国 4532
하게 4533
thì 4534
っている 4535
冲 4536
ក 4537
ออกมา 4538
找到 4539
说的 4540
完成 4541
自然 4542
ประ 4543
akan 4544
▁좀 4545
це 4546
除了 4547
▁năng 4548
支 4549
▁báo 4550
慢 4551
음 4552
э 4553
对吗 4554
▁belas 4555
社 4556
升 4557
だと 4558
刀 4559
复 4560
회 4561
词 4562
mo 4563
دی 4564
▁boleh 4565
仔 4566
fa 4567
▁دو 4568
同学 4569
दा 4570
ర్ 4571
ไทย 4572
たい 4573
କ 4574
ạ 4575
هم 4576
ทําให้ 4577
股 4578
确定 4579
んですよ 4580
持 4581
好多 4582
▁theo 4583
▁dapat 4584
▁对对对 4585
▁잘 4586
とは 4587
んですね 4588
까지 4589
ট 4590
国际 4591
တာ 4592
ای 4593
ちゃん 4594
ਸ 4595
까 4596
细 4597
ไหม 4598
▁biết 4599
▁पे 4600
ると 4601
静 4602
それは 4603
走了 4604
ぐらい 4605
pan 4606
▁tài 4607
▁quy 4608
หลัง 4609
▁qo 4610
။ 4611
용 4612
لو 4613
健康 4614
ib 4615
ં 4616
ги 4617
みんな 4618
ot 4619
吉 4620
きました 4621
蓝 4622
吴 4623
散 4624
เอง 4625
▁။ 4626
への 4627
백 4628
位置 4629
ul 4630
▁liên 4631
爆 4632
なら 4633
建议 4634
▁trị 4635
แต่ว่า 4636
▁quả 4637
تى 4638
される 4639
▁tục 4640
천 4641
ନ 4642
ения 4643
▁điểm 4644
你你 4645
密码 4646
르 4647
你这个 4648
ci 4649
นา 4650
ен 4651
▁бол 4652
的歌 4653
也没 4654
プ 4655
ବ 4656
ગ 4657
ุ 4658
ча 4659
เขาก็ 4660
из 4661
经常 4662
通知 4663
เวลา 4664
上课 4665
ସ 4666
ả 4667
事故 4668
港 4669
ko 4670
然 4671
效果 4672
封 4673
মা 4674
๑ 4675
助 4676
線 4677
下面 4678
交易 4679
堂 4680
чи 4681
够 4682
어요 4683
它的 4684
так 4685
▁रहे 4686
资料 4687
得到 4688
ى 4689
无法 4690
๔ 4691
昨日 4692
界 4693
除 4694
▁chúng 4695
嚟 4696
เกิด 4697
さあ 4698
ков 4699
未来 4700
必须 4701
vi 4702
타 4703
સ 4704
およそ 4705
根据 4706
กว่า 4707
ะ 4708
مۇ 4709
但是我 4710
▁tự 4711
เด็ก 4712
계 4713
银 4714
เดี๋ยว 4715
ต่าง 4716
广 4717
ол 4718
න් 4719
F 4720
的事情 4721
一条 4722
เธอ 4723
我不知道 4724
▁말 4725
問題 4726
一个月 4727
就是我 4728
би 4729
查询 4730
跟他 4731
न् 4732
亮 4733
你现在 4734
ネ 4735
๕ 4736
消费 4737
▁진짜 4738
▁sebagai 4739
音乐 4740
▁два 4741
电影 4742
▁ایک 4743
那是 4744
则 4745
号码 4746
ା 4747
▁وال 4748
য় 4749
ข่าว 4750
▁vực 4751
逼 4752
全国 4753
さんは 4754
▁bahwa 4755
奇 4756
ik 4757
tại 4758
质量 4759
结 4760
ไหน 4761
се 4762
▁मतलब 4763
成为 4764
ین 4765
赶紧 4766
校 4767
tak 4768
基本 4769
▁kemudian 4770
ศ 4771
罪 4772
害 4773
X 4774
还在 4775
▁lima 4776
운 4777
铁 4778
▁ये 4779
namun 4780
单位 4781
▁તો 4782
康 4783
▁ribu 4784
副 4785
可以吗 4786
নি 4787
asa 4788
▁것 4789
▁أن 4790
▁be 4791
분 4792
▁cách 4793
▁tâm 4794
ですが 4795
いく 4796
قا 4797
実 4798
ə 4799
ា 4800
懂 4801
▁зна 4802
▁khai 4803
まだ 4804
係 4805
ரு 4806
тор 4807
より 4808
死了 4809
cu 4810
ကို 4811
вот 4812
护 4813
じゃ 4814
就不 4815
产 4816
ひ 4817
▁covid 4818
十五 4819
ల 4820
दी 4821
이다 4822
▁mem 4823
ம 4824
十二 4825
통 4826
您这个 4827
▁hal 4828
▁tiền 4829
▁thu 4830
干嘛 4831
ии 4832
▁negara 4833
亚 4834
بل 4835
吼 4836
▁сейчас 4837
吃饭 4838
也会 4839
เมื่อ 4840
ут 4841
pu 4842
贴 4843
冰 4844
▁baik 4845
▁kiểm 4846
ә 4847
ци 4848
你在 4849
跟您 4850
简单 4851
พูด 4852
しかし 4853
猪 4854
動 4855
ਤ 4856
注册 4857
रि 4858
险 4859
すると 4860
家庭 4861
▁еще 4862
ే 4863
份 4864
▁рас 4865
라고 4866
ay 4867
▁gian 4868
مو 4869
广场 4870
▁peng 4871
雷 4872
ック 4873
ੇ 4874
▁این 4875
▁sendiri 4876
欲 4877
▁kết 4878
在这个 4879
叶 4880
横 4881
сти 4882
就行 4883
ວ 4884
愿 4885
主要是 4886
尽 4887
第一个 4888
しい 4889
結構 4890
质 4891
국 4892
тер 4893
▁bukan 4894
▁फिर 4895
하면 4896
对面 4897
▁melakukan 4898
骨 4899
တွေ 4900
不管 4901
ри 4902
пи 4903
嗰啲 4904
用的 4905
第三 4906
শ 4907
می 4908
▁cùng 4909
ながら 4910
금 4911
等一下 4912
▁ஒரு 4913
れる 4914
你这 4915
▁cần 4916
造 4917
크 4918
かった 4919
不一样 4920
育 4921
пу 4922
仲 4923
人生 4924
盛 4925
વ 4926
介绍 4927
▁있다 4928
噢 4929
ap 4930
提前 4931
紧 4932
一万 4933
త 4934
ам 4935
ан 4936
ે 4937
烟 4938
니까 4939
割 4940
▁ý 4941
كى 4942
我会 4943
▁đây 4944
四十 4945
裤 4946
上了 4947
ति 4948
ยา 4949
เจอ 4950
ами 4951
▁linh 4952
ۇ 4953
▁nak 4954
ู 4955
သ 4956
了我 4957
新的 4958
ешь 4959
했 4960
فت 4961
ମ 4962
▁sekarang 4963
任何 4964
就行了 4965
파 4966
▁sở 4967
方法 4968
那里 4969
男人 4970
lang 4971
남 4972
登录 4973
ทุก 4974
으 4975
၊ 4976
양 4977
ケ 4978
об 4979
前面 4980
pun 4981
阮 4982
信用卡 4983
帮助 4984
র্ 4985
R 4986
テ 4987
ா 4988
▁doanh 4989
累 4990
還 4991
▁tư 4992
▁нет 4993
▁साथ 4994
ণ 4995
所有的 4996
网络 4997
尾 4998
魔 4999
イン 5000
▁вас 5001
电视 5002
날 5003
ят 5004
▁rồi 5005
右 5006
提交 5007
十分 5008
ฟ 5009
我还 5010
कर 5011
గ 5012
最高 5013
▁baru 5014
压 5015
ध 5016
▁એ 5017
▁बात 5018
พัก 5019
来的 5020
▁bir 5021
部门 5022
别的 5023
职 5024
見て 5025
ете 5026
પ 5027
啊我 5028
接受 5029
早上 5030
リー 5031
ث 5032
как 5033
ୁ 5034
ତ 5035
อายุ 5036
这边的话 5037
唐 5038
致 5039
京 5040
的事 5041
ன 5042
功能 5043
▁किया 5044
的な 5045
抽 5046
रो 5047
▁थे 5048
ও 5049
▁cầu 5050
营 5051
นํา 5052
so 5053
▁hoạt 5054
ની 5055
कि 5056
基本上 5057
▁아니 5058
广州 5059
وی 5060
声音 5061
▁punya 5062
▁kamu 5063
关于 5064
有的 5065
前に 5066
本来 5067
告 5068
ым 5069
▁только 5070
atan 5071
胡 5072
里边 5073
たら 5074
下载 5075
던 5076
бы 5077
kar 5078
例 5079
帮你 5080
点儿 5081
吓 5082
માં 5083
ી 5084
ным 5085
دو 5086
环境 5087
苏 5088
ที่จะ 5089
▁quyết 5090
▁belum 5091
▁которые 5092
ことが 5093
pak 5094
ение 5095
รู้ 5096
جا 5097
消息 5098
自动 5099
把它 5100
马上 5101
玩儿 5102
ร้าน 5103
سی 5104
大的 5105
ком 5106
ද 5107
হ 5108
秀 5109
их 5110
▁trọng 5111
我没 5112
小朋友 5113
不太 5114
▁C 5115
▁است 5116
َ 5117
ここ 5118
เข้าไป 5119
ไม่มี 5120
जा 5121
租 5122
으면 5123
출 5124
స 5125
▁सब 5126
อาจจะ 5127
结婚 5128
就要 5129
員 5130
孙 5131
委 5132
▁بہت 5133
워 5134
میں 5135
▁может 5136
额度 5137
▁hóa 5138
泰 5139
丰 5140
まず 5141
ように 5142
▁그냥 5143
▁б 5144
订 5145
博 5146
ته 5147
我有 5148
બ 5149
赛 5150
mas 5151
五百 5152
▁đại 5153
場所 5154
実は 5155
жи 5156
优惠 5157
ੀ 5158
合作 5159
หลาย 5160
皆さん 5161
していた 5162
▁giờ 5163
你自己 5164
厚 5165
при 5166
نگ 5167
เจ้าหน้าที่ 5168
ช่วย 5169
டு 5170
না 5171
购买 5172
లు 5173
问一下 5174
计划 5175
看着 5176
▁너무 5177
лы 5178
▁быть 5179
দ 5180
警察 5181
圈 5182
á 5183
▁bắt 5184
▁또 5185
是要 5186
adi 5187
▁вам 5188
คนที่ 5189
你不 5190
월 5191
্যা 5192
ү 5193
से 5194
ど 5195
chi 5196
效 5197
易 5198
倍 5199
宝宝 5200
▁sampai 5201
질 5202
வா 5203
▁प्र 5204
纸 5205
▁많이 5206
给我们 5207
抗 5208
决定 5209
象 5210
ное 5211
▁terjadi 5212
he 5213
▁ham 5214
酸 5215
缺 5216
เหมือน 5217
ත 5218
れば 5219
▁ты 5220
以及 5221
下去 5222
领导 5223
天天 5224
ਲ 5225
▁đạo 5226
ি 5227
▁tadi 5228
银行卡 5229
我没有 5230
作为 5231
Ma 5232
六十 5233
你怎么 5234
责任 5235
如果是 5236
노 5237
ற 5238
交通 5239
进入 5240
梅 5241
دار 5242
ав 5243
姓 5244
洋 5245
ガ 5246
ِ 5247
我先 5248
교 5249
咨询 5250
▁કે 5251
还可以 5252
高速 5253
状況 5254
赵 5255
置 5256
রা 5257
人民 5258
逃 5259
役 5260
య 5261
我自己 5262
就是那个 5263
基 5264
ノ 5265
师傅 5266
یم 5267
なく 5268
টি 5269
デ 5270
습니다 5271
호 5272
합니다 5273
랑 5274
po 5275
告诉 5276
เดิน 5277
遇到 5278
核 5279
幸福 5280
ు 5281
调查 5282
床 5283
政策 5284
迷 5285
资金 5286
豆 5287
دي 5288
жд 5289
进来 5290
▁보 5291
ad 5292
附近 5293
いました 5294
っと 5295
ુ 5296
是不 5297
怎么办 5298
j 5299
▁lên 5300
มือ 5301
30 5302
那我们 5303
错了 5304
ลา 5305
我那个 5306
히 5307
嗯嗯 5308
ター 5309
▁कोई 5310
烧 5311
两千 5312
苑 5313
农 5314
そ 5315
好不好 5316
弱 5317
商品 5318
谢谢啊 5319
努力 5320
แค่ 5321
觉 5322
లో 5323
如果你 5324
▁mga 5325
dari 5326
投资 5327
平时 5328
になった 5329
해야 5330
๊ 5331
等于 5332
啊你 5333
条件 5334
占 5335
思い 5336
ほど 5337
▁bản 5338
더 5339
举 5340
恩 5341
模式 5342
নে 5343
消 5344
佳 5345
ਕ 5346
兄弟 5347
老板 5348
脱 5349
我再 5350
▁그래 5351
พา 5352
任务 5353
告诉我 5354
▁vẫn 5355
ход 5356
ств 5357
我已经 5358
多了 5359
டி 5360
参 5361
项 5362
▁이제 5363
属于 5364
한다 5365
女人 5366
展 5367
▁nói 5368
매 5369
▁જ 5370
ظ 5371
些 5372
집 5373
难道 5374
qa 5375
sau 5376
ев 5377
tidak 5378
اف 5379
▁этом 5380
ો 5381
都要 5382
没有了 5383
▁khác 5384
되 5385
em 5386
дан 5387
잖아 5388
是多少 5389
ida 5390
ติด 5391
จน 5392
ぐ 5393
▁sau 5394
เปิด 5395
时候 5396
餐 5397
гу 5398
हा 5399
其中 5400
关闭 5401
最好 5402
方向 5403
때 5404
一张 5405
▁masyarakat 5406
▁thấy 5407
▁dilakukan 5408
呢是 5409
ขาย 5410
どんな 5411
電 5412
ư 5413
連 5414
進 5415
要不 5416
记得 5417
▁없 5418
ត 5419
مر 5420
在一起 5421
ॉ 5422
にある 5423
ស 5424
ve 5425
机场 5426
就在 5427
第一次 5428
قى 5429
夫 5430
▁tới 5431
箱 5432
仕事 5433
控 5434
▁더 5435
fi 5436
息 5437
▁thường 5438
他妈 5439
如此 5440
えっ 5441
စ 5442
彩 5443
னா 5444
毒 5445
พื้นที่ 5446
做了 5447
wi 5448
하지 5449
김 5450
轮 5451
休息 5452
慢慢 5453
ង 5454
府 5455
争 5456
દ 5457
我们是 5458
กระ 5459
จับ 5460
피 5461
录 5462
kat 5463
账单 5464
ీ 5465
be 5466
说一下 5467
다고 5468
可能是 5469
运动 5470
▁secara 5471
保单 5472
花园 5473
姐姐 5474
ງ 5475
さらに 5476
▁لل 5477
归 5478
徐 5479
ly 5480
네요 5481
дела 5482
โ 5483
พร 5484
ヤ 5485
▁그거 5486
汇 5487
说是 5488
▁или 5489
छ 5490
選 5491
กิน 5492
▁அது 5493
这个问题 5494
费用 5495
▁अभी 5496
提示 5497
han 5498
られた 5499
势 5500
วิ 5501
▁हूँ 5502
▁내 5503
kemudian 5504
森 5505
三年 5506
因为我们 5507
ください 5508
मे 5509
んですが 5510
こんな 5511
大会 5512
馆 5513
бор 5514
కు 5515
อยู่ใน 5516
lash 5517
▁있어 5518
▁जा 5519
大厦 5520
ut 5521
好的好的 5522
ые 5523
什麼 5524
出了 5525
ца 5526
時に 5527
网站 5528
绝 5529
考え 5530
형 5531
ң 5532
父母 5533
今日は 5534
ँ 5535
▁điện 5536
便宜 5537
四个 5538
ek 5539
一番 5540
好好好 5541
工作人员 5542
取り 5543
沒有 5544
威 5545
▁you 5546
▁बाद 5547
ник 5548
хо 5549
▁I 5550
备 5551
লে 5552
对方 5553
具 5554
嘉 5555
搜索 5556
签 5557
剧 5558
建设 5559
ۋ 5560
▁besar 5561
男性 5562
but 5563
贷 5564
ใหม่ 5565
一会儿 5566
গ 5567
齐 5568
歳 5569
仙 5570
▁kali 5571
醒 5572
▁bagi 5573
وم 5574
露 5575
ទ 5576
还有一个 5577
ా 5578
证明 5579
sen 5580
▁dự 5581
▁போ 5582
然後 5583
พ่อ 5584
▁того 5585
皇 5586
系啊 5587
ха 5588
▁был 5589
硬 5590
jak 5591
इस 5592
就能 5593
kh 5594
สาร 5595
豪 5596
境 5597
เคย 5598
▁begitu 5599
aya 5600
就像 5601
สุ 5602
▁را 5603
んですか 5604
随 5605
大哥 5606
▁потому 5607
속 5608
сы 5609
증 5610
죠 5611
楼主 5612
それが 5613
au 5614
怎样 5615
भ 5616
qu 5617
曾 5618
会议 5619
您看 5620
ีย 5621
相关 5622
と思う 5623
ых 5624
▁sử 5625
▁этого 5626
金额 5627
现在是 5628
宫 5629
▁내가 5630
▁lớn 5631
прав 5632
でしょう 5633
▁우리 5634
まして 5635
二百 5636
อันนี้ 5637
မှာ 5638
อยาก 5639
是这样 5640
坏 5641
약 5642
勝 5643
سى 5644
▁здесь 5645
してる 5646
為 5647
東 5648
有时候 5649
tang 5650
务 5651
麻 5652
というのは 5653
อ่ะ 5654
給 5655
认识 5656
ప 5657
ช่วง 5658
غا 5659
不是说 5660
绿 5661
▁thương 5662
مان 5663
▁waktu 5664
▁bàn 5665
句 5666
哎呀 5667
말 5668
令 5669
糖 5670
बा 5671
熱 5672
▁nên 5673
设置 5674
▁giữ 5675
一個 5676
ในการ 5677
ยังไง 5678
ですよ 5679
您说 5680
十八 5681
రు 5682
▁रही 5683
你有 5684
医生 5685
心里 5686
си 5687
必 5688
కి 5689
யா 5690
▁nanti 5691
べ 5692
親 5693
真的是 5694
ந 5695
▁thủ 5696
雅 5697
其他的 5698
준 5699
欧 5700
▁tập 5701
業 5702
اق 5703
困 5704
沟通 5705
▁xử 5706
ें 5707
反馈 5708
跟我说 5709
▁tempat 5710
ผล 5711
에는 5712
ここで 5713
依 5714
ชน 5715
với 5716
ний 5717
있는 5718
休 5719
iy 5720
拖 5721
รา 5722
▁对呀 5723
ге 5724
スト 5725
暗 5726
▁अपने 5727
တော့ 5728
增 5729
့ 5730
لم 5731
ច 5732
临 5733
▁giải 5734
вид 5735
听到 5736
架 5737
你也 5738
포 5739
轻 5740
▁thanh 5741
说我 5742
iya 5743
婚 5744
练 5745
یر 5746
了啊 5747
▁بال 5748
▁mana 5749
偏 5750
冬 5751
把那个 5752
행 5753
▁嗯好 5754
ban 5755
杯 5756
是那个 5757
的就是 5758
▁कहा 5759
раз 5760
ур 5761
걸 5762
我們 5763
กลุ่ม 5764
没问题 5765
理由 5766
ще 5767
종 5768
因此 5769
본 5770
的小 5771
すごく 5772
甜 5773
▁thi 5774
ぞ 5775
▁لیے 5776
我就是 5777
设计 5778
什么的 5779
နေ 5780
ோ 5781
码 5782
сам 5783
kasi 5784
来电 5785
▁D 5786
圆 5787
ี 5788
的那 5789
za 5790
航 5791
産 5792
누 5793
▁करने 5794
后期 5795
百分之 5796
ਨ 5797
ите 5798
棒 5799
我哋 5800
▁ئا 5801
对我 5802
示 5803
俾 5804
延 5805
▁આ 5806
是谁 5807
同じ 5808
普通 5809
입니다 5810
保障 5811
▁thống 5812
金融 5813
▁对啊 5814
身份证 5815
蛋 5816
annya 5817
โอ้โห 5818
▁membuat 5819
订单 5820
๖ 5821
یں 5822
妹 5823
ở 5824
滑 5825
ित 5826
赶 5827
點 5828
呼 5829
▁M 5830
播 5831
々 5832
评价 5833
▁пять 5834
寒 5835
부터 5836
▁chí 5837
▁nào 5838
▁jalan 5839
со 5840
嗎 5841
控制 5842
గా 5843
▁phần 5844
▁пре 5845
된 5846
▁beberapa 5847
민 5848
▁मुझे 5849
不同 5850
你还 5851
在那个 5852
hal 5853
きた 5854
との 5855
ボ 5856
门口 5857
▁пред 5858
apakah 5859
あります 5860
请您 5861
击 5862
看见 5863
dengan 5864
เข้ามา 5865
妹妹 5866
চ 5867
▁इस 5868
犯 5869
取消 5870
▁тоже 5871
▁thức 5872
ふ 5873
暴 5874
确认 5875
ตอน 5876
》 5877
▁bilan 5878
因為 5879
不上 5880
一家 5881
▁nghị 5882
嘴 5883
感染 5884
认 5885
dar 5886
摆 5887
ня 5888
那么多 5889
해요 5890
▁три 5891
你想 5892
感谢 5893
导 5894
ස 5895
ことを 5896
预 5897
ဘ 5898
挺好的 5899
胜 5900
瑞 5901
不可能 5902
分析 5903
нов 5904
박 5905
晓 5906
กร 5907
维 5908
mat 5909
▁luật 5910
бу 5911
两百 5912
丁 5913
▁என்ன 5914
có 5915
熊 5916
ใหญ่ 5917
pas 5918
▁uchun 5919
暂时 5920
混 5921
做一个 5922
ねえ 5923
精神 5924
你去 5925
ви 5926
欠 5927
ため 5928
khi 5929
lalu 5930
ई 5931
é 5932
▁empat 5933
淡 5934
说明 5935
청 5936
峰 5937
▁nguyễn 5938
▁telah 5939
都在 5940
医 5941
请问您 5942
稍微 5943
▁надо 5944
칠 5945
ใช่ 5946
舞 5947
もある 5948
इ 5949
アメリカ 5950
《 5951
渡 5952
根本 5953
▁chuyển 5954
去做 5955
购 5956
诚 5957
搭 5958
င် 5959
父 5960
▁nhiệm 5961
され 5962
弹 5963
▁K 5964
▁tạo 5965
کی 5966
ер 5967
ную 5968
回复 5969
▁mungkin 5970
જ 5971
标准 5972
老婆 5973
▁ப 5974
▁кто 5975
ға 5976
ஸ் 5977
我想问一下 5978
小学 5979
เหตุการณ์ 5980
上次 5981
薄 5982
意外 5983
ир 5984
必要 5985
偷 5986
相信 5987
我给你 5988
▁અ 5989
▁लोग 5990
▁aja 5991
om 5992
તા 5993
дел 5994
といいます 5995
这一块 5996
▁살 5997
jo 5998
老公 5999
ପ 6000
盖 6001
違う 6002
开心 6003
ි 6004
ข 6005
んですよね 6006
▁тем 6007
稍等 6008
える 6009
กลาง 6010
丝 6011
ак 6012
ran 6013
▁chống 6014
เหมือนกัน 6015
汤 6016
まずは 6017
ય 6018
销 6019
的电话 6020
จุด 6021
sehingga 6022
од 6023
中午 6024
分享 6025
ड़ 6026
莫 6027
なので 6028
▁mạnh 6029
泡 6030
回答 6031
▁ha 6032
ण 6033
iz 6034
င်း 6035
移 6036
还能 6037
吹 6038
袋 6039
เพื่อน 6040
课程 6041
止 6042
ມ 6043
дер 6044
のお 6045
一号 6046
ตั้ง 6047
▁sing 6048
ตั้งแต่ 6049
▁घर 6050
ก็จะ 6051
ним 6052
▁chưa 6053
ម 6054
디 6055
▁होता 6056
วง 6057
旧 6058
肯定是 6059
ុ 6060
ตรง 6061
ос 6062
眼睛 6063
ये 6064
▁hiệu 6065
टी 6066
▁kau 6067
掉了 6068
三千 6069
년 6070
こういう 6071
核实 6072
情報 6073
ること 6074
的に 6075
த்த 6076
ไง 6077
警方 6078
▁tiêu 6079
▁예 6080
터 6081
ଆ 6082
中的 6083
▁او 6084
్ 6085
不客气 6086
拼 6087
จํา 6088
增加 6089
甚至 6090
▁melihat 6091
様 6092
法律 6093
谢 6094
氏 6095
▁masa 6096
那那 6097
事儿 6098
▁sekali 6099
利用 6100
▁ہیں 6101
▁मेरे 6102
ú 6103
自分の 6104
जी 6105
ใส่ 6106
欢迎 6107
ٹی 6108
一切 6109
据 6110
▁the 6111
ピ 6112
▁minh 6113
看了 6114
تو 6115
ก็ต้อง 6116
▁ما 6117
ай 6118
긴 6119
側 6120
とも 6121
ُ 6122
추 6123
▁vừa 6124
故事 6125
େ 6126
่า 6127
รอ 6128
きょう 6129
थ 6130
चा 6131
ල 6132
名字 6133
빠 6134
蛮 6135
▁ninh 6136
▁pernah 6137
激 6138
্য 6139
वि 6140
也要 6141
続いて 6142
가지고 6143
卫 6144
▁семь 6145
дей 6146
打了 6147
があった 6148
้น 6149
セ 6150
英雄 6151
▁khó 6152
ග 6153
泉 6154
▁nhưng 6155
いない 6156
第二个 6157
rin 6158
あった 6159
不懂 6160
ประชาชน 6161
isi 6162
ten 6163
香港 6164
ong 6165
ద 6166
てる 6167
容易 6168
▁можно 6169
▁sembilan 6170
ana 6171
之间 6172
ゴ 6173
我感觉 6174
気持ち 6175
岛 6176
销售 6177
输 6178
ってる 6179
জ 6180
ட் 6181
лет 6182
末 6183
都系 6184
在这 6185
没办法 6186
তা 6187
你知道 6188
您现在 6189
礼 6190
лен 6191
▁этот 6192
▁даже 6193
歩 6194
боль 6195
لي 6196
犹 6197
တယ် 6198
本身 6199
목 6200
ு 6201
وت 6202
软件 6203
疑 6204
луч 6205
বে 6206
ทีนี้ 6207
คํา 6208
ھ 6209
惊 6210
探 6211
睡觉 6212
检查 6213
ละ 6214
私は 6215
ສ 6216
tur 6217
规定 6218
พบ 6219
▁triệu 6220
W 6221
也就 6222
就是我们 6223
负责 6224
zi 6225
在这里 6226
奖 6227
ப 6228
暖 6229
সে 6230
▁четыре 6231
的啊 6232
那样 6233
国内 6234
▁년 6235
▁masuk 6236
基础 6237
湾 6238
ней 6239
顾 6240
されて 6241
▁mua 6242
است 6243
因为他 6244
专业 6245
ائ 6246
胖 6247
лся 6248
▁gì 6249
▁chất 6250
Bu 6251
提醒 6252
傻 6253
wan 6254
сс 6255
ロシア 6256
射 6257
▁bạn 6258
资 6259
チーム 6260
苹果 6261
红包 6262
зи 6263
້ 6264
▁अब 6265
小孩 6266
藤 6267
▁ay 6268
ông 6269
的嘛 6270
没关系 6271
我看一下 6272
शा 6273
▁nhiên 6274
这么多 6275
放在 6276
▁ఆ 6277
ting 6278
හ 6279
되는 6280
▁bor 6281
负 6282
試合 6283
▁dulu 6284
公司的 6285
搬 6286
খ 6287
ائی 6288
这块 6289
印象 6290
耳朵 6291
保护 6292
パン 6293
材料 6294
نه 6295
满意 6296
吸 6297
脑 6298
▁tham 6299
腿 6300
語 6301
้า 6302
ck 6303
길 6304
ということ 6305
准 6306
针对 6307
िक 6308
프 6309
จัด 6310
難 6311
一方 6312
▁அந்த 6313
▁مع 6314
的情况 6315
▁嗯那 6316
年前 6317
คืน 6318
역 6319
你能 6320
自由 6321
▁gây 6322
最大 6323
देश 6324
▁거야 6325
中间 6326
不够 6327
หน่อย 6328
ไ 6329
har 6330
嘢 6331
tas 6332
げ 6333
ප 6334
公园 6335
推荐 6336
લ 6337
电子 6338
ara 6339
tetapi 6340
身上 6341
ダ 6342
स्ट 6343
コン 6344
食べ 6345
袂 6346
自分 6347
▁那你 6348
章 6349
我可以 6350
功 6351
▁건 6352
ਮ 6353
ứ 6354
几天 6355
これが 6356
煮 6357
สอง 6358
少し 6359
ধ 6360
伟 6361
▁خرید 6362
终于 6363
颜色 6364
ชื่อ 6365
审 6366
บาง 6367
bo 6368
唔系 6369
期待 6370
行业 6371
▁đình 6372
▁cáo 6373
yu 6374
司 6375
干什么 6376
人は 6377
打野 6378
กําลัง 6379
结束 6380
له 6381
현 6382
ประมาณ 6383
▁khách 6384
ି 6385
▁sĩ 6386
如果您 6387
tik 6388
वे 6389
▁mas 6390
▁tội 6391
四百 6392
эр 6393
ずっと 6394
یه 6395
わけ 6396
қ 6397
eng 6398
ชาย 6399
ชีวิต 6400
တ် 6401
比如 6402
уч 6403
八十 6404
九点 6405
対 6406
ธ 6407
▁dựng 6408
喎 6409
戏 6410
ठ 6411
dalam 6412
▁truyền 6413
mp 6414
好嘞 6415
られ 6416
同事 6417
jumlah 6418
▁hệ 6419
桃 6420
设备 6421
经过 6422
▁đấy 6423
달 6424
گر 6425
ger 6426
新闻 6427
▁sih 6428
状态 6429
ベ 6430
评 6431
枪 6432
家人 6433
印 6434
aman 6435
別 6436
我想听 6437
什么东西 6438
速度 6439
荣 6440
лу 6441
ск 6442
旁边 6443
ё 6444
ဆ 6445
ไม่ใช่ 6446
अ 6447
登记 6448
ကျ 6449
ਪ 6450
ҙ 6451
ผ่าน 6452
绑定 6453
震 6454
سر 6455
花呗 6456
骂 6457
สามารถ 6458
ครั้ง 6459
็ 6460
症 6461
คิด 6462
에게 6463
的钱 6464
手机号 6465
斗 6466
▁cuộc 6467
就有 6468
善 6469
เจ้า 6470
町 6471
抱 6472
辅助 6473
杰 6474
▁hay 6475
怎么走 6476
可能会 6477
尚 6478
在哪 6479
不在 6480
一九 6481
▁perlu 6482
保证 6483
一块 6484
들은 6485
結果 6486
tri 6487
올 6488
然后就 6489
ติ 6490
勿 6491
ා 6492
中央 6493
这就是 6494
尽快 6495
개 6496
пер 6497
不对 6498
朱 6499
意见 6500
不得 6501
があります 6502
それを 6503
shi 6504
▁viện 6505
我操 6506
▁सं 6507
▁đảm 6508
люб 6509
▁gần 6510
家族 6511
科技 6512
快乐 6513
ชาวบ้าน 6514
历史 6515
熟 6516
不敢 6517
体验 6518
▁yêu 6519
▁время 6520
เสียง 6521
庭 6522
現 6523
tor 6524
▁الت 6525
су 6526
گی 6527
パー 6528
含 6529
vo 6530
وہ 6531
▁их 6532
那天 6533
挑 6534
▁tính 6535
我今天 6536
लो 6537
вод 6538
직 6539
ూ 6540
we 6541
mereka 6542
வி 6543
随便 6544
有很多 6545
きます 6546
虎 6547
خا 6548
」。 6549
甘 6550
▁sống 6551
吃了 6552
把我 6553
ပ 6554
严 6555
变成 6556
買 6557
等等 6558
ab 6559
▁எ 6560
じゃないですか 6561
非常に 6562
汝 6563
戴 6564
上午 6565
腰 6566
par 6567
▁đá 6568
นัก 6569
羊 6570
是的 6571
결 6572
大きな 6573
的话就是 6574
节目 6575
判 6576
ser 6577
دن 6578
开车 6579
લા 6580
天气 6581
耳 6582
務 6583
คดี 6584
ทํางาน 6585
骗 6586
적으로 6587
网上 6588
ल् 6589
しか 6590
女儿 6591
迫 6592
会不会 6593
ров 6594
らない 6595
▁nguyên 6596
たち 6597
辛苦 6598
bila 6599
હ 6600
互 6601
岸 6602
tin 6603
风险 6604
庆 6605
学院 6606
下次 6607
บน 6608
▁buat 6609
ポイント 6610
▁mặt 6611
独 6612
軍 6613
đã 6614
rang 6615
锁 6616
baik 6617
でしょ 6618
她的 6619
季 6620
超市 6621
그리고 6622
▁cứu 6623
提出 6624
七十 6625
跟着 6626
ید 6627
ща 6628
▁pem 6629
مە 6630
池 6631
دە 6632
ฮะ 6633
ដ 6634
視 6635
▁salah 6636
なんだ 6637
কা 6638
ட்ட 6639
ール 6640
寺 6641
浪 6642
六点 6643
если 6644
说你 6645
ير 6646
填 6647
品牌 6648
▁سو 6649
ын 6650
▁बना 6651
りました 6652
เอ 6653
かい 6654
Men 6655
ىنى 6656
వా 6657
بی 6658
関係 6659
▁ис 6660
▁ông 6661
语音 6662
ое 6663
▁pihak 6664
▁छ 6665
زی 6666
哭 6667
ษ 6668
언 6669
절 6670
利息 6671
然后他 6672
▁trước 6673
วัด 6674
导航 6675
麦 6676
ソ 6677
運 6678
旅游 6679
▁kerja 6680
id 6681
ศพ 6682
າ 6683
▁khoảng 6684
になります 6685
▁menge 6686
nhưng 6687
知道了 6688
ฟัง 6689
नि 6690
제가 6691
操 6692
ထ 6693
惠 6694
くる 6695
رہ 6696
两年 6697
▁quý 6698
▁ibu 6699
гор 6700
國 6701
组织 6702
▁đưa 6703
हे 6704
▁دی 6705
တဲ့ 6706
적인 6707
我们就 6708
нь 6709
▁xây 6710
oh 6711
状 6712
ต้น 6713
예 6714
▁makan 6715
好啊 6716
他那个 6717
いって 6718
物流 6719
大家都 6720
宜 6721
ถาม 6722
好像是 6723
ский 6724
愿意 6725
ket 6726
▁برای 6727
深圳 6728
估计 6729
ही 6730
まる 6731
▁где 6732
ロー 6733
恋 6734
кой 6735
ши 6736
▁Anda 6737
灵 6738
▁biến 6739
没人 6740
हर 6741
嫌 6742
군 6743
▁chế 6744
浦 6745
▁ба 6746
▁nạn 6747
▁بر 6748
更に 6749
ன்னு 6750
是你 6751
这个这个 6752
بت 6753
▁air 6754
以为 6755
หรือว่า 6756
不去 6757
劲 6758
典 6759
牙 6760
▁bán 6761
查一下 6762
虚 6763
みたい 6764
馬 6765
把他 6766
หรือเปล่า 6767
▁අ 6768
刑 6769
лю 6770
เรื่องของ 6771
บ้าง 6772
腾讯 6773
纳 6774
一人 6775
均 6776
为您 6777
up 6778
洞 6779
族 6780
所以我 6781
복 6782
ис 6783
19 6784
忘了 6785
▁ratus 6786
严重 6787
バー 6788
지만 6789
▁человек 6790
급 6791
ум 6792
▁во 6793
ikan 6794
▁giới 6795
▁প্র 6796
▁tiến 6797
関 6798
工资 6799
mer 6800
업 6801
照片 6802
▁करते 6803
赤 6804
િ 6805
▁đơn 6806
账 6807
தி 6808
قد 6809
的那种 6810
ผิด 6811
弟 6812
▁rasa 6813
小姐 6814
調 6815
초 6816
变化 6817
問 6818
のです 6819
減 6820
ает 6821
ौ 6822
需 6823
迄个 6824
识 6825
ີ 6826
沒 6827
ফ 6828
▁भ 6829
ซื้อ 6830
mungkin 6831
▁hộ 6832
おいしい 6833
ทําไม 6834
ін 6835
چى 6836
ийн 6837
就是你 6838
尼 6839
男子 6840
ye 6841
் 6842
▁dekat 6843
陪 6844
儿童 6845
али 6846
ポ 6847
凉 6848
ระ 6849
南京 6850
したい 6851
开通 6852
▁đất 6853
坚持 6854
져 6855
每个 6856
▁biệt 6857
黒 6858
こちらの 6859
高い 6860
でしょうか 6861
だって 6862
▁terus 6863
сер 6864
咪 6865
奶奶 6866
به 6867
是说 6868
त् 6869
ຫ 6870
办法 6871
嗰 6872
离开 6873
ном 6874
mum 6875
ေ 6876
就是您 6877
ري 6878
ອ 6879
烦 6880
وي 6881
▁ఇ 6882
你给我 6883
ே 6884
价值 6885
คง 6886
闹 6887
哥哥 6888
티 6889
โดน 6890
▁quá 6891
버 6892
อา 6893
紫 6894
ться 6895
每个月 6896
▁삼 6897
보다 6898
である 6899
▁masalah 6900
一份 6901
ул 6902
แรก 6903
爽 6904
나는 6905
备案 6906
ۈ 6907
ません 6908
dung 6909
那个那个 6910
拜拜 6911
优 6912
瓶 6913
ова 6914
کا 6915
ат 6916
恶 6917
애 6918
રા 6919
все 6920
人都 6921
ਿ 6922
比赛 6923
邮箱 6924
▁दिया 6925
ман 6926
Se 6927
иться 6928
供 6929
డ 6930
мер 6931
那個 6932
地区 6933
普 6934
设 6935
んだよ 6936
要不要 6937
有一些 6938
的话就 6939
▁개 6940
यो 6941
▁vấn 6942
근 6943
▁который 6944
还会 6945
快点 6946
你先 6947
厉害 6948
強い 6949
艺 6950
生命 6951
瘦 6952
職 6953
เยอะ 6954
了一下 6955
над 6956
کن 6957
数字 6958
그래서 6959
রে 6960
ୋ 6961
属 6962
每次 6963
他这个 6964
那这个 6965
机会 6966
설 6967
อย่างนี้ 6968
并不 6969
出来了 6970
เสียชีวิต 6971
插 6972
▁эти 6973
担心 6974
เด 6975
▁vì 6976
▁좋 6977
пар 6978
ệ 6979
สาย 6980
ตาย 6981
算了 6982
适合 6983
或者说 6984
的呢 6985
による 6986
คนนี้ 6987
不可 6988
来讲 6989
學 6990
稍等一下 6991
sha 6992
似 6993
▁cá 6994
作品 6995
坑 6996
تە 6997
▁들어 6998
誰 6999
赢 7000
这儿 7001
▁warga 7002
忍 7003
浮 7004
库 7005
时代 7006
看来 7007
だろう 7008
▁काम 7009
▁betul 7010
感情 7011
▁های 7012
▁tích 7013
绝对 7014
ワ 7015
0 7016
ตัวเอง 7017
日本の 7018
好似 7019
ారు 7020
anda 7021
▁중 7022
50 7023
在家 7024
ດ 7025
昌 7026
明日 7027
财 7028
▁diễn 7029
外套 7030
智 7031
顔 7032
知道吧 7033
这个东西 7034
่น 7035
也就是 7036
ップ 7037
ราย 7038
เดือน 7039
批 7040
ゆ 7041
▁생각 7042
保持 7043
才是 7044
由于 7045
▁않 7046
を見 7047
了呀 7048
tuy 7049
ລ 7050
ເ 7051
这边是 7052
八点 7053
وز 7054
जि 7055
响 7056
▁xét 7057
提高 7058
童 7059
太多 7060
几年 7061
dam 7062
火车站 7063
رى 7064
코 7065
られて 7066
મા 7067
里的 7068
ත් 7069
ウクライナ 7070
▁том 7071
しく 7072
ෙ 7073
导致 7074
搜 7075
软 7076
หมด 7077
初めて 7078
권 7079
она 7080
他们的 7081
▁такой 7082
최 7083
▁देख 7084
볼 7085
นั่ง 7086
关键 7087
调整 7088
มันก็ 7089
潮 7090
越来越 7091
▁먹 7092
▁H 7093
也不是 7094
รอบ 7095
ありがとうございます 7096
遮 7097
祝 7098
డు 7099
なって 7100
殺 7101
лись 7102
隔 7103
삼 7104
炒 7105
拜 7106
拢 7107
你别 7108
▁pemerintah 7109
ギ 7110
lab 7111
結 7112
ская 7113
聚 7114
达到 7115
том 7116
▁đảng 7117
تے 7118
키 7119
তি 7120
▁chị 7121
▁phẩm 7122
▁தான் 7123
ครอบครัว 7124
فی 7125
方案 7126
収 7127
▁chiến 7128
pol 7129
эл 7130
เล่น 7131
ரி 7132
ええ 7133
▁thứ 7134
の中で 7135
你妈 7136
時代 7137
明显 7138
த்து 7139
是怎么 7140
co 7141
ப்ப 7142
拆 7143
พล 7144
预约 7145
ed 7146
写的 7147
▁ảnh 7148
广告 7149
ถ 7150
पी 7151
▁nggak 7152
รูป 7153
สาว 7154
ข้อ 7155
解释 7156
料理 7157
就算 7158
▁đổi 7159
▁cukup 7160
▁உ 7161
升级 7162
ไฟ 7163
怀 7164
하기 7165
围 7166
sta 7167
勢 7168
刺 7169
ver 7170
va 7171
너 7172
就是这个 7173
وق 7174
了一 7175
등 7176
攻 7177
打算 7178
ร่วม 7179
我怎么 7180
注 7181
禁 7182
还不 7183
ਾ 7184
▁tetap 7185
▁bersama 7186
รัก 7187
하다 7188
我又 7189
▁su 7190
▁нам 7191
来看 7192
สม 7193
▁вообще 7194
atau 7195
ข้าง 7196
▁нужно 7197
▁tổng 7198
▁बार 7199
哪位 7200
你会 7201
▁N 7202
とき 7203
aga 7204
提升 7205
한테 7206
最终 7207
▁nơi 7208
▁menga 7209
论 7210
गी 7211
రా 7212
ە 7213
▁quyền 7214
しない 7215
ยิง 7216
ざ 7217
決 7218
我要去 7219
ຊ 7220
刻 7221
▁đánh 7222
▁pro 7223
考试 7224
午後 7225
sar 7226
ですから 7227
届 7228
技能 7229
여기 7230
▁trở 7231
免费 7232
ယ် 7233
创 7234
дар 7235
ờ 7236
反应 7237
▁trợ 7238
盗 7239
席 7240
ઈ 7241
في 7242
是可以 7243
▁шесть 7244
での 7245
불 7246
ள 7247
值得 7248
呵呵 7249
ី 7250
喊 7251
태 7252
▁trưởng 7253
各种 7254
什么样的 7255
bat 7256
ып 7257
等我 7258
毋 7259
有限公司 7260
ние 7261
我不是 7262
hiện 7263
后续 7264
一只 7265
实际上 7266
▁vùng 7267
迄种 7268
его 7269
市民 7270
支援 7271
ала 7272
ଶ 7273
▁vậy 7274
大道 7275
ຄ 7276
พร้อม 7277
మా 7278
▁quản 7279
▁восемь 7280
承 7281
用了 7282
レー 7283
再说 7284
اج 7285
彼 7286
근데 7287
토 7288
伴 7289
となる 7290
▁sức 7291
เขาบอกว่า 7292
اع 7293
上来 7294
작 7295
▁giáo 7296
到现在 7297
ent 7298
発表 7299
产生 7300
老人 7301
就这样 7302
طر 7303
的这种 7304
mar 7305
我家 7306
▁okay 7307
替 7308
▁지금 7309
เสีย 7310
▁девять 7311
▁были 7312
没有没有 7313
旅 7314
珠 7315
范 7316
một 7317
▁mạng 7318
两个人 7319
▁lần 7320
รี 7321
改变 7322
▁много 7323
再次 7324
ตี 7325
星期 7326
▁জন্য 7327
判断 7328
不住 7329
嗰个 7330
園 7331
ดา 7332
麻烦您 7333
రి 7334
ி 7335
ဖြစ် 7336
ும் 7337
उ 7338
によりますと 7339
▁знаю 7340
▁hạn 7341
すること 7342
阴 7343
出来的 7344
期间 7345
тель 7346
一会 7347
ғы 7348
安装 7349
没有办法 7350
ீ 7351
▁করে 7352
駅 7353
▁کیا 7354
了你 7355
▁না 7356
证据 7357
今回 7358
それでは 7359
ది 7360
質 7361
哈哈 7362
藏 7363
講 7364
带着 7365
مس 7366
▁गए 7367
lon 7368
كە 7369
냐 7370
候 7371
是没有 7372
奶 7373
ó 7374
▁luar 7375
بو 7376
ผ 7377
我这边是 7378
可能性 7379
▁nghệ 7380
各位 7381
ел 7382
▁пока 7383
ที 7384
透 7385
వి 7386
▁بی 7387
▁máy 7388
ительно 7389
实在 7390
11 7391
切り 7392
লা 7393
щ 7394
▁mag 7395
온 7396
垃圾 7397
济 7398
▁чем 7399
▁kembali 7400
ран 7401
कार 7402
아니 7403
বি 7404
▁gak 7405
လ 7406
غان 7407
이나 7408
我把 7409
▁beli 7410
审核 7411
鸟 7412
工程 7413
超过 7414
บริเวณ 7415
க் 7416
▁hồ 7417
сан 7418
程度 7419
بار 7420
十六 7421
тя 7422
▁pergi 7423
ちゃんと 7424
赞 7425
▁ủy 7426
計 7427
▁tốt 7428
हि 7429
资源 7430
対策 7431
నే 7432
なんて 7433
车辆 7434
جی 7435
众 7436
กลับมา 7437
不少 7438
两天 7439
全然 7440
一位 7441
່ 7442
ก็มี 7443
などの 7444
먹 7445
응 7446
итель 7447
หนู 7448
фи 7449
实际 7450
毕竟 7451
อยู่ที่ 7452
хот 7453
▁الح 7454
更加 7455
▁сказал 7456
▁ஆமா 7457
▁tp 7458
您在 7459
ально 7460
韩 7461
можно 7462
▁bằng 7463
▁啊对 7464
我们现在 7465
田さん 7466
คลิป 7467
श् 7468
点击 7469
▁पहले 7470
ประเทศ 7471
ani 7472
▁jakarta 7473
కా 7474
เกิดขึ้น 7475
盒 7476
永远 7477
три 7478
қа 7479
修改 7480
хи 7481
丸 7482
ります 7483
造成 7484
larni 7485
стро 7486
即系 7487
▁lợi 7488
れて 7489
ခ 7490
చ 7491
ถนน 7492
▁ứng 7493
mon 7494
Z 7495
十一 7496
menurut 7497
▁vận 7498
確かに 7499
น้อย 7500
ทอง 7501
っています 7502
든 7503
▁جا 7504
ад 7505
终 7506
လည်း 7507
từ 7508
肥 7509
ود 7510
▁langsung 7511
我们这个 7512
会社 7513
それで 7514
と思って 7515
▁F 7516
同意 7517
岩 7518
ہم 7519
丹 7520
半年 7521
gar 7522
تم 7523
terima 7524
塘 7525
nu 7526
くらい 7527
▁بود 7528
нет 7529
▁kỳ 7530
测 7531
▁больше 7532
▁mưa 7533
疼 7534
สุดท้าย 7535
ટ 7536
เราก็ 7537
ではない 7538
托 7539
▁kota 7540
लि 7541
今の 7542
つけ 7543
รอง 7544
やっぱ 7545
叫我 7546
آ 7547
性的 7548
레 7549
優 7550
也很 7551
ئی 7552
ступ 7553
习惯 7554
是因为 7555
お願いします 7556
مى 7557
接下来 7558
女子 7559
담 7560
竹 7561
iga 7562
став 7563
卷 7564
ਂ 7565
rasi 7566
شت 7567
吃的 7568
着急 7569
幺五 7570
енно 7571
意味 7572
▁partai 7573
이렇게 7574
瓜 7575
固 7576
墙 7577
开了 7578
သူ 7579
ຕ 7580
▁xảy 7581
六百 7582
车子 7583
在线 7584
大人 7585
▁кон 7586
查看 7587
▁конечно 7588
栋 7589
ố 7590
就没有 7591
裡 7592
超级 7593
ริ 7594
埋 7595
更新 7596
父亲 7597
両 7598
▁سال 7599
فا 7600
ますね 7601
kap 7602
ラン 7603
▁좋아 7604
๗ 7605
制度 7606
郎 7607
不知 7608
身边 7609
เมือง 7610
れた 7611
ина 7612
▁nga 7613
ù 7614
我我我 7615
ben 7616
カー 7617
rt 7618
ство 7619
टे 7620
▁गई 7621
였 7622
ее 7623
阵 7624
kami 7625
임 7626
ني 7627
ương 7628
放心 7629
rat 7630
▁đúng 7631
पा 7632
▁hướng 7633
できない 7634
12 7635
니다 7636
既然 7637
ции 7638
ကြ 7639
우리 7640
ตก 7641
য 7642
ที่สุด 7643
شر 7644
રે 7645
ского 7646
вал 7647
逾期 7648
玩具 7649
ty 7650
索 7651
▁बोल 7652
不断 7653
▁atas 7654
▁đông 7655
湿 7656
压力 7657
ບ 7658
15 7659
லாம் 7660
闲 7661
res 7662
อร์ 7663
ভ 7664
జ 7665
пе 7666
▁giảm 7667
勤 7668
▁तक 7669
▁L 7670
▁enam 7671
ຍ 7672
なんで 7673
▁दे 7674
让人 7675
んだけど 7676
材 7677
شی 7678
行行行 7679
मि 7680
例えば 7681
磨 7682
亦 7683
ను 7684
当地 7685
것이 7686
说什么 7687
是一 7688
كل 7689
der 7690
收入 7691
阶段 7692
五年 7693
成了 7694
▁بول 7695
ライ 7696
พิ 7697
린 7698
なる 7699
je 7700
▁bố 7701
▁번 7702
我刚才 7703
평 7704
可以的 7705
손 7706
经验 7707
辣 7708
인데 7709
えて 7710
请问有什么可以帮您 7711
환 7712
외 7713
لار 7714
উ 7715
▁sini 7716
なんです 7717
▁memiliki 7718
これから 7719
到账 7720
lib 7721
ੱ 7722
参与 7723
消防 7724
▁mang 7725
怎么了 7726
的名字 7727
ген 7728
▁korban 7729
▁இல்ல 7730
总是 7731
ਗ 7732
实现 7733
ہر 7734
多久 7735
อก 7736
این 7737
إ 7738
朗 7739
旗 7740
्या 7741
很快 7742
๙ 7743
好看 7744
幅 7745
因为你 7746
▁была 7747
種 7748
去看 7749
姿 7750
幕 7751
▁без 7752
現場 7753
梁 7754
二号 7755
trước 7756
கு 7757
跟你说 7758
สร้าง 7759
ala 7760
燕 7761
▁उस 7762
しっかり 7763
ちゃ 7764
我们在 7765
کل 7766
กา 7767
科学 7768
தான் 7769
のに 7770
ହ 7771
忘 7772
他也 7773
直播 7774
пол 7775
▁đoàn 7776
▁நான் 7777
สําหรับ 7778
त्र 7779
就是在 7780
によって 7781
的吧 7782
▁politik 7783
ตรวจสอบ 7784
▁सा 7785
侬 7786
▁करना 7787
▁។ 7788
ณ 7789
编 7790
输入 7791
▁lịch 7792
かもしれない 7793
损 7794
یک 7795
▁sebenarnya 7796
十年 7797
▁是啊 7798
▁मिल 7799
เท 7800
▁ज्यादा 7801
既 7802
ต่อไป 7803
ด้าน 7804
▁двадцать 7805
ਬ 7806
шу 7807
وب 7808
だよ 7809
而已 7810
五千 7811
เอาไว้ 7812
涨 7813
án 7814
ек 7815
細 7816
健 7817
ज़ 7818
கி 7819
வே 7820
▁ingin 7821
就系 7822
于是 7823
那个什么 7824
ણ 7825
они 7826
ไปดู 7827
สัก 7828
郭 7829
是我们 7830
乘 7831
ฝ่าย 7832
聊天 7833
让我们 7834
ling 7835
▁sebelum 7836
还有其他 7837
岡 7838
▁哦那 7839
ева 7840
சி 7841
sama 7842
اح 7843
你那个 7844
▁hoàn 7845
ਹ 7846
لىق 7847
이야 7848
بد 7849
друг 7850
▁그렇게 7851
살 7852
答 7853
されている 7854
คัน 7855
dim 7856
मान 7857
ச 7858
▁bagaimana 7859
석 7860
يت 7861
察 7862
▁시간 7863
▁عن 7864
▁paling 7865
▁இ 7866
ที่ผ่านมา 7867
ましょう 7868
當 7869
▁себя 7870
ំ 7871
幸 7872
那就是 7873
▁тебя 7874
বা 7875
骑 7876
က် 7877
抱歉 7878
获得 7879
一遍 7880
回到 7881
ска 7882
纯 7883
тар 7884
改革 7885
不起 7886
เดียว 7887
やつ 7888
からの 7889
▁પણ 7890
▁вопрос 7891
각 7892
地域 7893
үү 7894
حال 7895
入れ 7896
万円 7897
▁kasih 7898
ค่า 7899
棉 7900
นอน 7901
漂亮 7902
승 7903
被告 7904
เครื่อง 7905
후 7906
▁люди 7907
팔 7908
ตรวจ 7909
之内 7910
필 7911
治疗 7912
지금 7913
▁tỷ 7914
异 7915
▁चाहिए 7916
洲 7917
ัก 7918
政治 7919
ंड 7920
يل 7921
图片 7922
▁sana 7923
你觉得 7924
猜 7925
격 7926
八百 7927
電話 7928
塞 7929
▁phục 7930
拨打 7931
洪 7932
有问题 7933
แก 7934
▁воз 7935
▁아이 7936
射手 7937
▁rõ 7938
最新 7939
了嘛 7940
もっと 7941
これで 7942
▁पता 7943
ния 7944
чу 7945
羽 7946
不然 7947
เรื่องนี้ 7948
需求 7949
最多 7950
なかなか 7951
những 7952
▁kasus 7953
ੋ 7954
ଦ 7955
▁hết 7956
လို 7957
也好 7958
の方 7959
なるほど 7960
دىن 7961
awal 7962
胸 7963
蒙 7964
▁चल 7965
不清楚 7966
ွ 7967
のかな 7968
▁إ 7969
cũng 7970
▁알 7971
ో 7972
ơ 7973
▁sách 7974
▁दिन 7975
到您 7976
ું 7977
申 7978
议 7979
▁वि 7980
தா 7981
隐 7982
喽 7983
▁إلى 7984
技 7985
ring 7986
▁sebab 7987
检 7988
行为 7989
गे 7990
僕 7991
ล่ะ 7992
ේ 7993
мир 7994
▁tujuh 7995
ັນ 7996
途 7997
เป็นคน 7998
目标 7999
ើ 8000
يد 8001
▁آپ 8002
شا 8003
봐 8004
宋 8005
っていうのは 8006
▁ऐसा 8007
가는 8008
沿 8009
事实 8010
ખ 8011
旅行 8012
▁presiden 8013
след 8014
เก 8015
된다 8016
▁кор 8017
▁جو 8018
គ 8019
▁একটি 8020
▁je 8021
あり 8022
九十 8023
有一 8024
けれども 8025
ことは 8026
振 8027
入り 8028
เป 8029
мар 8030
ства 8031
有可能 8032
还得 8033
宇 8034
нее 8035
mah 8036
込み 8037
ladi 8038
▁女式 8039
ชอบ 8040
宮 8041
▁cháy 8042
征 8043
什么事 8044
宿 8045
▁malam 8046
水平 8047
带来 8048
他在 8049
隆 8050
屏 8051
简 8052
سل 8053
二零 8054
やはり 8055
मी 8056
中路 8057
dir 8058
节课 8059
war 8060
ियों 8061
เล 8062
冠 8063
道路 8064
剑 8065
沉 8066
เอก 8067
▁الع 8068
仍 8069
单元 8070
▁ہی 8071
法院 8072
▁되 8073
伤害 8074
ୀ 8075
100 8076
载 8077
▁ничего 8078
맛 8079
真系 8080
▁phủ 8081
ないと 8082
炎 8083
もし 8084
啥物 8085
면서 8086
▁लगा 8087
撞 8088
▁bắc 8089
এই 8090
耐 8091
テレビ 8092
那这边 8093
sin 8094
kin 8095
在我们 8096
一直在 8097
laku 8098
루 8099
滚 8100
бер 8101
▁hukum 8102
いろんな 8103
▁katanya 8104
▁ваш 8105
極 8106
وس 8107
ған 8108
になりました 8109
घ 8110
चार 8111
券 8112
我知道了 8113
ภาค 8114
▁کار 8115
午前 8116
啥子 8117
bahkan 8118
都能 8119
udah 8120
幺零 8121
家园 8122
вой 8123
▁xác 8124
做好 8125
переулок 8126
注目 8127
味道 8128
qi 8129
诗 8130
不同的 8131
ボール 8132
▁بعد 8133
めて 8134
siz 8135
▁tố 8136
做到 8137
そこ 8138
▁vệ 8139
ชาว 8140
述 8141
监 8142
柜 8143
▁hingga 8144
▁ăn 8145
▁पा 8146
真正 8147
▁depan 8148
टा 8149
▁sáng 8150
遐 8151
ニュース 8152
▁이렇게 8153
お前 8154
تھ 8155
ээ 8156
ाई 8157
哪儿 8158
قل 8159
ตรงนี้ 8160
悪 8161
န 8162
eh 8163
勇 8164
ाइ 8165
сть 8166
冒 8167
mis 8168
正好 8169
แจ้ง 8170
就好了 8171
様子 8172
叫什么 8173
บาท 8174
▁bà 8175
滴 8176
交流 8177
最低 8178
立ち 8179
没有啊 8180
壁 8181
さんに 8182
そこで 8183
プロ 8184
રી 8185
법 8186
سک 8187
规 8188
どこ 8189
▁tử 8190
▁په 8191
生产 8192
そうな 8193
стан 8194
汁 8195
言葉 8196
ທ 8197
シャ 8198
cho 8199
سي 8200
有钱 8201
不是我 8202
付け 8203
稳 8204
つか 8205
ザ 8206
오늘 8207
目的 8208
рав 8209
予想 8210
番組 8211
ұ 8212
ность 8213
▁co 8214
воз 8215
nd 8216
▁kira 8217
女生 8218
かなり 8219
几点 8220
하는데 8221
했어요 8222
把你 8223
od 8224
的话您 8225
▁quảng 8226
▁suka 8227
言って 8228
凡 8229
▁sakit 8230
▁여행 8231
表现 8232
었 8233
về 8234
▁terhadap 8235
帅 8236
固定 8237
我们要 8238
maka 8239
op 8240
tim 8241
مل 8242
芳 8243
姑娘 8244
ฮ 8245
▁kiến 8246
▁trẻ 8247
▁anda 8248
کار 8249
새 8250
ธรรม 8251
▁потом 8252
衫 8253
dang 8254
幺幺 8255
den 8256
బ 8257
๘ 8258
空调 8259
的大 8260
آن 8261
ె 8262
▁tuổi 8263
อําเภอ 8264
လို့ 8265
uk 8266
突 8267
満 8268
▁对对 8269
뭐 8270
伫 8271
聞いて 8272
ится 8273
再来 8274
▁бар 8275
ක් 8276
我要听 8277
那时候 8278
催 8279
帝 8280
搁 8281
七点 8282
oke 8283
ให้กับ 8284
的是吧 8285
組 8286
今晚 8287
▁করতে 8288
活動 8289
傷 8290
▁있어요 8291
▁भाई 8292
なぜ 8293
lebih 8294
大街 8295
這樣 8296
つの 8297
たま 8298
描 8299
影響 8300
یت 8301
了是吧 8302
双方 8303
นิ 8304
것 8305
▁사람 8306
扫 8307
写真 8308
એ 8309
市の 8310
ছে 8311
仁 8312
不喜欢 8313
ره 8314
VIPKID 8315
เว 8316
আমার 8317
重点 8318
ச்சி 8319
生日 8320
的方式 8321
我跟你说 8322
님 8323
爸 8324
地铁 8325
каза 8326
ડ 8327
kah 8328
費 8329
ร์ 8330
然后那个 8331
ੰ 8332
ရှိ 8333
什么呀 8334
させて 8335
tasi 8336
ですけど 8337
接触 8338
னு 8339
▁저 8340
▁nhập 8341
▁loại 8342
▁keluarga 8343
ヒ 8344
零二 8345
意义 8346
ской 8347
нем 8348
▁giả 8349
收费 8350
凯 8351
做什么 8352
空间 8353
เรียน 8354
言う 8355
내가 8356
亿 8357
没什么 8358
▁आपको 8359
ทุกคน 8360
ina 8361
您稍等 8362
کھ 8363
lam 8364
있습니다 8365
淘宝 8366
呢就是 8367
権 8368
是哪个 8369
然后您 8370
档 8371
ଏ 8372
족 8373
▁நம்ம 8374
▁какой 8375
▁कम 8376
▁ngành 8377
ลิ 8378
!? 8379
尽量 8380
နဲ့ 8381
十四 8382
十九 8383
▁penting 8384
không 8385
今回の 8386
我来 8387
知道吗 8388
对你 8389
母亲 8390
拿到 8391
્યા 8392
缘 8393
Т 8394
داد 8395
钢 8396
ключ 8397
tadi 8398
▁dah 8399
▁hòa 8400
ិ 8401
며 8402
▁seorang 8403
เริ่ม 8404
知识 8405
อง 8406
▁ئۇ 8407
คอ 8408
企業 8409
▁biển 8410
ry 8411
爷 8412
配合 8413
ায় 8414
ົ 8415
飛 8416
mbak 8417
乌 8418
中学 8419
怎 8420
外面 8421
▁thiết 8422
よかった 8423
เก็บ 8424
雄 8425
ชา 8426
ଜ 8427
편 8428
pat 8429
やり 8430
నా 8431
先生您 8432
摸 8433
▁सु 8434
▁그래서 8435
selain 8436
漏 8437
先ほど 8438
迎 8439
然后再 8440
斤 8441
ทั้งหมด 8442
▁rằng 8443
نس 8444
း 8445
師 8446
इन 8447
ҡ 8448
ပါ 8449
净 8450
▁ấy 8451
三点 8452
표 8453
▁pag 8454
ったら 8455
なくて 8456
了解一下 8457
很难 8458
форм 8459
闪 8460
益 8461
又是 8462
นาง 8463
虫 8464
▁đều 8465
ขึ้นมา 8466
宽 8467
กลับ 8468
否 8469
ali 8470
傻逼 8471
家的 8472
正式 8473
ચ 8474
▁ئى 8475
並 8476
투 8477
を受け 8478
ности 8479
▁тут 8480
oleh 8481
自身 8482
售 8483
▁pertama 8484
爹 8485
人物 8486
لىك 8487
体育 8488
ంట 8489
液 8490
人工 8491
إن 8492
름 8493
人们 8494
готов 8495
شو 8496
갔 8497
なの 8498
แหละ 8499
毕业 8500
ใช่ไหม 8501
报告 8502
▁بىر 8503
ı 8504
達 8505
▁muda 8506
史 8507
更多 8508
เรียก 8509
悲 8510
こっち 8511
溪 8512
显 8513
ូ 8514
ซ 8515
ப் 8516
чем 8517
▁Q 8518
積 8519
投诉 8520
angka 8521
pada 8522
一緒に 8523
扬 8524
ham 8525
行吗 8526
স্ 8527
눈 8528
的工作 8529
館 8530
▁nông 8531
▁kedua 8532
gang 8533
▁тебе 8534
想到 8535
▁嗯嗯嗯 8536
路上 8537
울 8538
宗 8539
曾经 8540
出て 8541
郑 8542
kamu 8543
کر 8544
หัว 8545
▁họ 8546
幺二 8547
▁chú 8548
迪 8549
他他 8550
及时 8551
至少 8552
的车 8553
历 8554
经理 8555
想想 8556
▁이런 8557
▁lập 8558
ળ 8559
されました 8560
េ 8561
心情 8562
ະ 8563
ก็ได้ 8564
▁مح 8565
歳の 8566
被害 8567
аль 8568
합 8569
▁मैंने 8570
恒 8571
持ち 8572
故 8573
女孩 8574
机构 8575
提供一下 8576
遠 8577
망 8578
亏 8579
மு 8580
▁پی 8581
前の 8582
ంది 8583
下班 8584
因为这个 8585
身份 8586
อย่า 8587
శ 8588
在我 8589
翔 8590
▁memberikan 8591
ร้อง 8592
ss 8593
怎么去 8594
따 8595
ทีม 8596
ผู้หญิง 8597
▁menye 8598
ெ 8599
小米 8600
服务器 8601
いった 8602
ель 8603
寻 8604
一个是 8605
สี 8606
овать 8607
कु 8608
द् 8609
民警 8610
orang 8611
보면 8612
بي 8613
стран 8614
đây 8615
邊 8616
တယ်။ 8617
جر 8618
锅 8619
奥特曼 8620
▁باش 8621
ホ 8622
▁после 8623
ดูแล 8624
ข้าว 8625
したら 8626
呢个 8627
にして 8628
▁तुम 8629
ชัย 8630
هر 8631
杠 8632
bah 8633
лан 8634
เค 8635
ய் 8636
就没 8637
টা 8638
津 8639
可爱 8640
专门 8641
ɣ 8642
零零 8643
ການ 8644
อยากจะ 8645
くて 8646
基金 8647
乳 8648
dy 8649
流量 8650
อน 8651
没了 8652
很多人 8653
ตลอด 8654
os 8655
gen 8656
tion 8657
爷爷 8658
の中 8659
ී 8660
大丈夫 8661
丢 8662
▁مش 8663
▁बता 8664
进行一个 8665
恢复 8666
दि 8667
уб 8668
▁पसंद 8669
ڑ 8670
有了 8671
ىسى 8672
kor 8673
狼 8674
জা 8675
撃 8676
уда 8677
作业 8678
곳 8679
С 8680
ился 8681
平安 8682
是啊 8683
桌 8684
团队 8685
日の 8686
敬 8687
▁mức 8688
許 8689
รักษา 8690
変 8691
泥 8692
ਜ 8693
판 8694
幾 8695
三天 8696
▁этой 8697
居然 8698
続いては 8699
爱情 8700
道理 8701
력 8702
岗 8703
ยังไม่ 8704
宣 8705
回来了 8706
链 8707
灾 8708
一日 8709
沈 8710
น่า 8711
確認 8712
明白了 8713
วน 8714
ேன் 8715
一样的 8716
찾 8717
落ち 8718
抑 8719
特に 8720
များ 8721
แฟน 8722
死亡 8723
讓 8724
發 8725
▁tướng 8726
案件 8727
非常好 8728
をして 8729
你把 8730
ชาติ 8731
학교 8732
ਵ 8733
▁nữa 8734
赚 8735
扣款 8736
ု 8737
我跟 8738
更多的 8739
่ง 8740
▁그러 8741
年龄 8742
▁mene 8743
赔 8744
辛 8745
然后我们 8746
lin 8747
容疑者 8748
具体的 8749
祖 8750
对对 8751
門 8752
高校 8753
อ่า 8754
并且 8755
्य 8756
んですけれども 8757
等着 8758
一段 8759
част 8760
ид 8761
▁같은 8762
ਦੇ 8763
じゃん 8764
的朋友 8765
او 8766
ден 8767
оч 8768
갈 8769
一边 8770
▁그게 8771
なんですけど 8772
ூ 8773
▁ප 8774
本次 8775
详细 8776
кого 8777
tal 8778
ราช 8779
采 8780
擦 8781
▁undang 8782
สูง 8783
nda 8784
荷 8785
五点 8786
Б 8787
▁high 8788
▁کرنے 8789
然后你 8790
他們 8791
ていた 8792
ker 8793
▁ketika 8794
十三 8795
幺八 8796
jangan 8797
▁biasa 8798
されています 8799
คา 8800
之一 8801
▁यार 8802
伯 8803
对不起 8804
哼 8805
ဆို 8806
▁hindi 8807
▁cán 8808
上げ 8809
▁pasti 8810
đồng 8811
tir 8812
态 8813
ぼ 8814
نو 8815
▁trạng 8816
肩 8817
кон 8818
ਚ 8819
心理 8820
ここに 8821
考えて 8822
吵 8823
ැ 8824
十七 8825
▁ને 8826
aksi 8827
▁পা 8828
▁lihat 8829
好き 8830
ân 8831
一句 8832
ओ 8833
相当 8834
いっぱい 8835
ộ 8836
ちゃう 8837
گا 8838
状態 8839
▁biểu 8840
친 8841
yan 8842
▁등 8843
라는 8844
至于 8845
▁ស 8846
เม 8847
رس 8848
▁selalu 8849
柳 8850
房间 8851
ас 8852
▁merupakan 8853
ର୍ 8854
▁всё 8855
なん 8856
方が 8857
▁nhau 8858
▁हुआ 8859
伝え 8860
▁जब 8861
摇 8862
有冇 8863
腾讯云 8864
合适 8865
場合 8866
يى 8867
一つ 8868
ပြီး 8869
под 8870
八号 8871
▁जाता 8872
有时间 8873
ธิ 8874
これを 8875
地铁站 8876
▁trang 8877
ەت 8878
やる 8879
angan 8880
这样的话 8881
тан 8882
だけで 8883
▁бо 8884
ほ 8885
▁cộng 8886
有多少 8887
三四 8888
یل 8889
贝 8890
つく 8891
転 8892
หลัก 8893
武汉 8894
零五 8895
▁daerah 8896
九九 8897
▁ఎ 8898
жив 8899
杭州 8900
ঁ 8901
බ 8902
於 8903
카 8904
른 8905
끝 8906
你们的 8907
飞机 8908
شن 8909
他会 8910
다가 8911
ジャ 8912
一笔 8913
▁сегодня 8914
英文 8915
铺 8916
灭 8917
司机 8918
難しい 8919
▁អ 8920
رات 8921
▁túy 8922
放一首 8923
dis 8924
给你们 8925
きて 8926
▁du 8927
再去 8928
ंग 8929
大きく 8930
جو 8931
红色 8932
▁tinggi 8933
还好 8934
भा 8935
もちろん 8936
你知道吗 8937
ị 8938
真实 8939
那儿 8940
いつも 8941
享受 8942
dak 8943
以外 8944
退款 8945
тра 8946
異 8947
이런 8948
零八 8949
▁delapan 8950
য়ে 8951
▁chứng 8952
七八 8953
อุ 8954
听说 8955
顿 8956
▁걸 8957
메 8958
лась 8959
வு 8960
始 8961
你再 8962
ฉ 8963
请问是 8964
两次 8965
▁어디 8966
问问 8967
▁teman 8968
▁udah 8969
▁dùng 8970
系咪 8971
佛 8972
▁ئې 8973
帰 8974
거든 8975
bung 8976
引き 8977
試 8978
જે 8979
加上 8980
▁dunia 8981
魚 8982
帮忙 8983
jar 8984
เรือ 8985
عد 8986
ก็เป็น 8987
触 8988
ਾਂ 8989
不足 8990
可以可以 8991
ฝั่ง 8992
ris 8993
その後 8994
료 8995
里面的 8996
腹 8997
saat 8998
ぬ 8999
什么呢 9000
第四 9001
▁الن 9002
ଲ 9003
siya 9004
มอง 9005
上がり 9006
加强 9007
高兴 9008
خوا 9009
란 9010
ปัญหา 9011
开发 9012
▁diện 9013
karena 9014
สา 9015
▁cảm 9016
手机号码 9017
台湾 9018
ژ 9019
▁misalnya 9020
ใบ 9021
手续费 9022
▁집 9023
随时 9024
지는 9025
▁lama 9026
了个 9027
见到 9028
转账 9029
धा 9030
▁bulan 9031
▁उ 9032
그런 9033
废 9034
建议您 9035
ได้รับ 9036
成都 9037
▁ఏ 9038
اں 9039
▁तीन 9040
দু 9041
ฉัน 9042
▁정도 9043
失败 9044
ディ 9045
ਦ 9046
橋 9047
▁hôm 9048
其實 9049
大事 9050
▁biên 9051
▁الس 9052
알 9053
御 9054
ティ 9055
dik 9056
К 9057
很大 9058
商业 9059
计算 9060
早就 9061
▁dẫn 9062
▁सकते 9063
多くの 9064
这这 9065
天津 9066
旁 9067
▁cố 9068
பி 9069
tib 9070
臭 9071
ию 9072
▁khí 9073
▁lao 9074
比較 9075
육 9076
▁какие 9077
人気 9078
ଳ 9079
may 9080
しまった 9081
زا 9082
小时 9083
ป่า 9084
日に 9085
fe 9086
思って 9087
というか 9088
hir 9089
映画 9090
୍ 9091
确实是 9092
唯一 9093
잘 9094
ются 9095
八八 9096
忠 9097
避 9098
▁سر 9099
tif 9100
迟 9101
công 9102
这样一个 9103
哟 9104
ень 9105
ối 9106
มีคน 9107
ยก 9108
这两个 9109
叫做 9110
はない 9111
teri 9112
就好 9113
頂 9114
▁can 9115
싶 9116
媒体 9117
一部 9118
炸 9119
五个 9120
などを 9121
lay 9122
巨 9123
다시 9124
ò 9125
最大的 9126
积 9127
一套 9128
انی 9129
看到了 9130
くなって 9131
ปกติ 9132
sang 9133
▁خود 9134
晒 9135
▁V 9136
碰 9137
▁kiện 9138
▁어떻게 9139
亡 9140
कल 9141
是您 9142
씨 9143
を見て 9144
din 9145
是这个 9146
ੁ 9147
▁এবং 9148
kok 9149
มันเป็น 9150
からね 9151
锦 9152
▁trực 9153
열 9154
要不然 9155
▁जी 9156
க்கி 9157
гар 9158
美的 9159
闻 9160
▁hỗ 9161
潜 9162
共同 9163
ष 9164
ปืน 9165
М 9166
执行 9167
楽 9168
▁себе 9169
થ 9170
겠 9171
▁vật 9172
крас 9173
还是说 9174
重庆 9175
然而 9176
সা 9177
sementara 9178
많은 9179
よろしくお願いします 9180
今天晚上 9181
好那 9182
看过 9183
дет 9184
鲁 9185
狂 9186
ந்த 9187
也在 9188
▁су 9189
がない 9190
▁tiên 9191
▁नि 9192
礼拜 9193
tem 9194
ிய 9195
本当 9196
คู่ 9197
ប្រ 9198
我们公司 9199
▁trí 9200
▁무슨 9201
的生活 9202
女的 9203
逆 9204
▁lệ 9205
ус 9206
这种情况 9207
有有 9208
گە 9209
سم 9210
คิดว่า 9211
ු 9212
看的 9213
ແ 9214
』 9215
দা 9216
移动 9217
▁time 9218
ила 9219
目の 9220
股票 9221
مه 9222
ติดตาม 9223
day 9224
弟弟 9225
тай 9226
નો 9227
យ 9228
两人 9229
ພ 9230
나요 9231
▁cư 9232
告诉你 9233
▁soal 9234
ชุด 9235
添加 9236
மே 9237
کیا 9238
๑๐ 9239
我们也 9240
マン 9241
算是 9242
凤 9243
『 9244
到底是 9245
划 9246
▁खा 9247
鼓 9248
める 9249
▁ເ 9250
喂你好 9251
pin 9252
不出来 9253
成本 9254
祝您生活愉快 9255
▁कभी 9256
ã 9257
夢 9258
対応 9259
▁nghiệm 9260
职业 9261
十万 9262
ଉ 9263
のこと 9264
哪些 9265
的好 9266
වි 9267
▁людей 9268
▁nguy 9269
өн 9270
桂 9271
呆 9272
уд 9273
协 9274
加入 9275
賞 9276
น่าจะ 9277
信号 9278
页 9279
▁ye 9280
发票 9281
عمل 9282
ਦਾ 9283
的孩子 9284
bel 9285
병 9286
すぐ 9287
的感觉 9288
ngan 9289
以来 9290
流程 9291
▁bất 9292
烈 9293
額 9294
▁하나 9295
现实 9296
อาหาร 9297
▁hưởng 9298
▁memper 9299
هذا 9300
วา 9301
恨 9302
是想 9303
流れ 9304
报名 9305
认真 9306
फ् 9307
స్ 9308
нос 9309
相手 9310
人に 9311
ब् 9312
સા 9313
มีความ 9314
kir 9315
经历 9316
秦 9317
改善 9318
▁અને 9319
▁बि 9320
кур 9321
สิ 9322
爬 9323
▁тридцать 9324
▁makanan 9325
جن 9326
当天 9327
ค้า 9328
ô 9329
40 9330
mati 9331
cam 9332
小微你好 9333
ึ 9334
▁இருக்கு 9335
五六 9336
્ 9337
拨 9338
없는 9339
ลอง 9340
▁나는 9341
▁ngoài 9342
ッチ 9343
گو 9344
▁한국 9345
▁chung 9346
зы 9347
▁அப்படி 9348
확 9349
一体 9350
ଭ 9351
撤 9352
尝试 9353
一步 9354
去找 9355
这不是 9356
呃就是 9357
诺 9358
加油 9359
就就 9360
취 9361
ที่มี 9362
▁अच्छी 9363
று 9364
จะมี 9365
ื 9366
ည် 9367
大臣 9368
いろいろ 9369
▁also 9370
▁proses 9371
ক্ষ 9372
公里 9373
薬 9374
стра 9375
▁सि 9376
بۇ 9377
▁mỹ 9378
子ども 9379
▁cường 9380
مال 9381
这个事情 9382
那我就 9383
▁좋은 9384
▁tengah 9385
美女 9386
▁khăn 9387
挂机 9388
lim 9389
กลัว 9390
ตะ 9391
解除 9392
符合 9393
有关 9394
兴趣 9395
年轻 9396
▁chuyên 9397
광 9398
くなる 9399
これまで 9400
诉 9401
对呀 9402
▁закон 9403
рез 9404
祥 9405
▁क्यों 9406
향 9407
서울 9408
阳光 9409
▁nguồn 9410
地震 9411
salah 9412
遭 9413
وه 9414
他不 9415
ଛି 9416
banyak 9417
七百 9418
줄 9419
分钟 9420
规划 9421
三号 9422
▁यह 9423
▁哎呀 9424
▁jawa 9425
かり 9426
▁왜 9427
өр 9428
เห 9429
你都 9430
也就是说 9431
▁nhanh 9432
竟然 9433
敏 9434
bur 9435
▁huy 9436
đối 9437
而家 9438
おい 9439
dagi 9440
ီ 9441
いつ 9442
特殊 9443
陆 9444
ห้อง 9445
ぶり 9446
面对 9447
cụ 9448
▁खेल 9449
اش 9450
資 9451
错误 9452
▁उसके 9453
八零 9454
รัฐ 9455
वी 9456
辉 9457
▁होती 9458
▁없어 9459
菲 9460
南路 9461
ବି 9462
શ 9463
ーン 9464
遇 9465
記録 9466
▁거기 9467
▁நா 9468
مت 9469
れない 9470
Ke 9471
▁लगता 9472
▁phép 9473
信用 9474
佫 9475
rah 9476
▁பா 9477
有这个 9478
шел 9479
并没有 9480
пор 9481
год 9482
你好小微 9483
才会 9484
饼 9485
аг 9486
นาน 9487
一件 9488
मो 9489
等到 9490
来到 9491
経済 9492
18 9493
不如 9494
过的 9495
鲜 9496
▁soát 9497
ที่เขา 9498
の中に 9499
▁datang 9500
▁diri 9501
灰 9502
рен 9503
很喜欢 9504
là 9505
کرد 9506
พยายาม 9507
乗 9508
我姓 9509
也不会 9510
ными 9511
oy 9512
ழ 9513
主动 9514
整体 9515
▁tay 9516
坊 9517
รวม 9518
覺得 9519
过程 9520
商家 9521
上がって 9522
▁antara 9523
海外 9524
▁애 9525
▁বি 9526
提醒我 9527
โพสต์ 9528
发送 9529
増 9530
就是一个 9531
这一个 9532
ิน 9533
บุรี 9534
▁خیلی 9535
缓 9536
ef 9537
试试 9538
▁selama 9539
आ 9540
四千 9541
ิ 9542
menang 9543
后台 9544
▁분 9545
รัฐบาล 9546
一一 9547
另外一个 9548
江南 9549
ا۔ 9550
▁khẩu 9551
▁bên 9552
関東 9553
也许 9554
বার 9555
لك 9556
在那 9557
もあります 9558
ဖ 9559
胆 9560
▁daripada 9561
我和 9562
损失 9563
जन 9564
bagaimana 9565
啊就是 9566
▁ре 9567
ไปแล้ว 9568
付款 9569
▁هم 9570
跟我们 9571
▁کم 9572
ขับ 9573
食品 9574
ครู 9575
ทราบ 9576
minta 9577
窗 9578
而是 9579
卡片 9580
问我 9581
ถือ 9582
住宅 9583
sur 9584
▁ம 9585
来た 9586
بات 9587
掌 9588
作用 9589
你是不是 9590
侧 9591
글 9592
▁अपनी 9593
km 9594
ભ 9595
終 9596
tra 9597
사용 9598
그렇 9599
มันจะ 9600
اه 9601
的话我 9602
あなた 9603
ист 9604
线上 9605
挺好 9606
โค 9607
▁बस 9608
っていた 9609
類 9610
▁menggunakan 9611
sal 9612
搿 9613
たくさん 9614
ất 9615
terus 9616
張 9617
▁may 9618
▁pang 9619
腾 9620
讨论 9621
▁tô 9622
▁आज 9623
两万 9624
九百 9625
эх 9626
我也不知道 9627
▁R 9628
저는 9629
医疗 9630
吐 9631
稳定 9632
困难 9633
لىرى 9634
▁phối 9635
天下 9636
dek 9637
몰 9638
があって 9639
言い 9640
ถ่าย 9641
десят 9642
ړ 9643
▁lalu 9644
没有什么 9645
不用了 9646
▁ừ 9647
每年 9648
های 9649
議 9650
十分钟 9651
来一首 9652
rik 9653
人間 9654
这个时候 9655
▁tuyến 9656
你这边 9657
дал 9658
找不到 9659
部屋 9660
▁sơn 9661
마음 9662
सो 9663
đến 9664
lak 9665
专家 9666
▁đà 9667
كان 9668
アン 9669
我刚刚 9670
▁불 9671
文字 9672
▁কি 9673
予定 9674
í 9675
କୁ 9676
测试 9677
মে 9678
▁liệu 9679
耍 9680
隊 9681
주세요 9682
তিনি 9683
이랑 9684
伝 9685
▁jam 9686
ヘ 9687
또 9688
થી 9689
เหตุ 9690
▁होगा 9691
剩 9692
큰 9693
▁đội 9694
他现在 9695
lat 9696
될 9697
pos 9698
国民 9699
ему 9700
员工 9701
겨 9702
▁맞아 9703
荒 9704
ەر 9705
ை 9706
찮 9707
文章 9708
ញ 9709
陵 9710
▁более 9711
ปิด 9712
ồ 9713
人で 9714
com 9715
怒 9716
âm 9717
に対して 9718
成绩 9719
がありました 9720
رة 9721
фа 9722
肌 9723
合い 9724
ế 9725
ที่เป็น 9726
づ 9727
患者 9728
纪 9729
교육 9730
겠다 9731
执 9732
我们会 9733
kai 9734
嗯就是 9735
之类的 9736
団 9737
私たち 9738
▁sebuah 9739
中で 9740
枚 9741
装修 9742
十点 9743
给大家 9744
रह 9745
이제 9746
なんですが 9747
访 9748
ді 9749
▁xa 9750
阁 9751
文件 9752
シー 9753
ишь 9754
ព 9755
體 9756
了之后 9757
serta 9758
왔 9759
水果 9760
ペ 9761
까요 9762
दु 9763
兩 9764
下了 9765
さんと 9766
ってこと 9767
就是他 9768
ୟ 9769
宏 9770
उन्होंने 9771
孔 9772
▁tìm 9773
▁love 9774
フィ 9775
我也是 9776
結婚 9777
그럼 9778
ຮ 9779
反映 9780
术 9781
▁quận 9782
多大 9783
пло 9784
ング 9785
開始 9786
为什么要 9787
ออกไป 9788
昔 9789
วิ่ง 9790
▁되게 9791
新しい 9792
там 9793
二二 9794
逐 9795
这样的一个 9796
検 9797
ряд 9798
▁맞 9799
් 9800
汗 9801
報 9802
我说你 9803
▁yo 9804
你不是 9805
คะ 9806
简单的 9807
ரா 9808
독 9809
▁啊啊 9810
寝 9811
黄色 9812
▁hải 9813
ủ 9814
▁الإ 9815
เสร็จ 9816
تون 9817
혼 9818
猛 9819
联系您 9820
进一步 9821
之后呢 9822
рын 9823
唱一首 9824
手术 9825
เจ้าของ 9826
▁mengu 9827
sir 9828
持って 9829
▁tentu 9830
打ち 9831
رم 9832
ファン 9833
ରା 9834
щи 9835
論 9836
▁and 9837
饮 9838
ram 9839
としては 9840
▁kel 9841
▁बा 9842
ัส 9843
جل 9844
diri 9845
柔 9846
ụ 9847
安尼 9848
还有什么 9849
▁ச 9850
مجھے 9851
empat 9852
▁ako 9853
dad 9854
اون 9855
理赔 9856
▁تھا۔ 9857
▁nghiêm 9858
我真的 9859
集团 9860
▁sedang 9861
аж 9862
このあと 9863
จะเป็น 9864
품 9865
調査 9866
лек 9867
▁કર 9868
琴 9869
幻 9870
五号 9871
并不是 9872
▁оста 9873
うち 9874
รุ 9875
二三 9876
模 9877
ปาก 9878
靴 9879
ari 9880
▁сказать 9881
▁lúc 9882
เป็นการ 9883
ひと 9884
原告 9885
烂 9886
Sa 9887
不来 9888
یو 9889
▁cara 9890
▁thêm 9891
絶 9892
ဒီ 9893
เลือก 9894
ధ 9895
लाई 9896
创新 9897
عا 9898
许多 9899
▁hidup 9900
이라고 9901
▁هو 9902
ရင် 9903
网友 9904
ед 9905
键 9906
ilgan 9907
봤 9908
बी 9909
日本人 9910
圣 9911
比较好 9912
죽 9913
ян 9914
平常 9915
괜 9916
山东 9917
坏了 9918
றது 9919
вин 9920
染 9921
브 9922
สาม 9923
ец 9924
映 9925
楽しみ 9926
儿的 9927
seperti 9928
▁tranh 9929
▁mata 9930
▁ప 9931
やった 9932
咱们这个 9933
kam 9934
蚊 9935
今後 9936
等待 9937
很有 9938
创业 9939
▁nih 9940
なのか 9941
责 9942
與 9943
เลยนะคะ 9944
기도 9945
我能 9946
জন 9947
▁سی 9948
出口 9949
เบ 9950
ئے 9951
▁kata 9952
lgan 9953
dok 9954
▁него 9955
▁கா 9956
劳 9957
% 9958
صد 9959
確 9960
ষ 9961
答案 9962
▁oh 9963
▁تع 9964
よりも 9965
سو 9966
▁meny 9967
▁đặc 9968
род 9969
് 9970
添 9971
介 9972
ありがとうございました 9973
跌 9974
▁쓰 9975
려고 9976
머 9977
▁hoặc 9978
行吧 9979
▁जैसे 9980
술 9981
କା 9982
遊 9983
表达 9984
▁الق 9985
Ba 9986
ときに 9987
ける 9988
为啥 9989
ของเรา 9990
いか 9991
做个 9992
受到 9993
جم 9994
六六 9995
▁yil 9996
န် 9997
▁thân 9998
순 9999
穷 10000
யி 10001
域 10002
わり 10003
产业 10004
研 10005
将来 10006
▁jelas 10007
绑 10008
過去 10009
有效 10010
おります 10011
▁наш 10012
究竟 10013
▁хорошо 10014
▁இந்த 10015
酷 10016
元小蛋 10017
行那 10018
sis 10019
十二月 10020
好きな 10021
寿 10022
同样 10023
เลยค่ะ 10024
сп 10025
悦 10026
았 10027
▁ठीक 10028
▁tuh 10029
照顾 10030
现在的 10031
عة 10032
说他 10033
यह 10034
启动 10035
我现在在 10036
ว่าจะ 10037
获 10038
予 10039
妖 10040
og 10041
抵 10042
▁cứ 10043
эн 10044
பு 10045
十二点 10046
قان 10047
利益 10048
等你 10049
不出 10050
年の 10051
域名 10052
还是要 10053
にお 10054
ic 10055
▁berada 10056
ぜひ 10057
▁sang 10058
完之后 10059
интерес 10060
оп 10061
บา 10062
▁sekitar 10063
ਅ 10064
でき 10065
!」 10066
浴 10067
土地 10068
启 10069
充值 10070
▁किसी 10071
лар 10072
cepat 10073
三零 10074
ahan 10075
▁đoạn 10076
まった 10077
мал 10078
وع 10079
以下 10080
요즘 10081
ดัง 10082
แรง 10083
是需要 10084
零三 10085
ట 10086
▁너 10087
ものを 10088
邮 10089
▁tịch 10090
ବା 10091
دة 10092
했어 10093
কার 10094
처 10095
会员 10096
cuma 10097
tek 10098
にかけて 10099
的原因 10100
த்தி 10101
私の 10102
太阳 10103
говор 10104
广东 10105
你那 10106
报警 10107
▁quân 10108
В 10109
是从 10110
広 10111
ゲーム 10112
韓国 10113
دم 10114
bukan 10115
ଗ 10116
身份证号码 10117
သွား 10118
就直接 10119
▁giữa 10120
一路 10121
スタート 10122
ことで 10123
大阪 10124
색 10125
伙 10126
▁nhóm 10127
だったら 10128
▁bao 10129
集中 10130
注销 10131
谢谢你 10132
Ch 10133
挖 10134
泽 10135
ขนาด 10136
幺三 10137
ରି 10138
▁dương 10139
car 10140
потому 10141
เชื่อ 10142
中意 10143
うわ 10144
نم 10145
どんどん 10146
▁ऐसे 10147
jung 10148
▁साल 10149
ఉ 10150
есть 10151
▁chương 10152
際 10153
ป้า 10154
过去了 10155
كا 10156
もん 10157
舞台 10158
jika 10159
▁кар 10160
捕 10161
送到 10162
垫 10163
لة 10164
kit 10165
잡 10166
が多い 10167
近く 10168
胃 10169
▁mobil 10170
浅 10171
▁sekolah 10172
▁trả 10173
▁khoa 10174
皆 10175
ировать 10176
我给您 10177
你不要 10178
кр 10179
کس 10180
我妈 10181
ىيە 10182
個人 10183
сил 10184
ọ 10185
看不到 10186
นี่แหละ 10187
ov 10188
几乎 10189
คุณแม่ 10190
扎 10191
行动 10192
ချ 10193
鹿 10194
经营 10195
▁哎你好 10196
ધ 10197
一场 10198
打的 10199
▁kondisi 10200
犯罪 10201
適 10202
▁شد 10203
培训 10204
▁얘기 10205
犬 10206
తి 10207
堵 10208
ڈی 10209
遗 10210
很少 10211
ไม่รู้ 10212
繁 10213
▁嗯行 10214
你了 10215
バス 10216
取材 10217
받 10218
һ 10219
您要 10220
없 10221
というのが 10222
白色 10223
기를 10224
jadi 10225
汽 10226
裏 10227
できた 10228
ăng 10229
เล็ก 10230
他妈的 10231
娜 10232
无论 10233
ив 10234
لے 10235
をする 10236
▁hcm 10237
公主 10238
▁lưu 10239
売 10240
ลํา 10241
润 10242
семьдесят 10243
叔 10244
但系 10245
ment 10246
город 10247
早く 10248
離 10249
就把 10250
▁giúp 10251
▁اپنے 10252
หนัก 10253
なんと 10254
こうした 10255
体重 10256
フェ 10257
是哪 10258
女式 10259
О 10260
碎 10261
这个人 10262
だな 10263
▁phụ 10264
hak 10265
จะต้อง 10266
вали 10267
軽 10268
кор 10269
羽绒服 10270
▁всего 10271
告知 10272
かけ 10273
تل 10274
يق 10275
但是他 10276
いきます 10277
こちらは 10278
が必要 10279
했는데 10280
북 10281
镜 10282
тов 10283
ۍ 10284
现金 10285
▁बे 10286
▁также 10287
零七 10288
トップ 10289
子さん 10290
随后 10291
限制 10292
против 10293
▁માં 10294
ண 10295
▁сорок 10296
四五 10297
受け 10298
優勝 10299
沟 10300
兄 10301
僕は 10302
来自 10303
プレー 10304
نت 10305
同志 10306
भी 10307
ается 10308
ент 10309
▁эта 10310
您这边的话 10311
小心 10312
奔 10313
▁열 10314
ରୁ 10315
▁такое 10316
運転 10317
其实是 10318
摩 10319
▁tentang 10320
社区 10321
▁இது 10322
▁是的 10323
▁muốn 10324
්‍ර 10325
收到了 10326
jawab 10327
伸 10328
เลยนะ 10329
冬天 10330
スター 10331
▁luôn 10332
啊是 10333
ญาติ 10334
ระหว่าง 10335
裁 10336
▁이십 10337
節 10338
雲 10339
ার 10340
그러면 10341
▁많 10342
电话号码 10343
経 10344
過ぎ 10345
▁இப்போ 10346
▁بار 10347
宅 10348
người 10349
ลักษณะ 10350
贸 10351
๐ 10352
شى 10353
ران 10354
ตอบ 10355
我之前 10356
▁thuộc 10357
幼儿园 10358
ราคา 10359
非常的 10360
นี่คือ 10361
ลาย 10362
问你 10363
施 10364
行行 10365
లే 10366
ជ 10367
浩 10368
cara 10369
생각 10370
เพิ่ม 10371
余额 10372
gam 10373
的信息 10374
▁tiện 10375
หมาย 10376
▁அத 10377
行く 10378
▁얼마 10379
奇怪 10380
脂肪 10381
tahan 10382
▁喂您好 10383
▁ప్ర 10384
imiz 10385
漫 10386
没得 10387
くん 10388
宾馆 10389
地点 10390
看你 10391
攻撃 10392
葉 10393
杜 10394
我看到 10395
пре 10396
▁trái 10397
▁đạt 10398
кра 10399
หมอ 10400
滨 10401
แสดง 10402
了很多 10403
宿舍 10404
也能 10405
天気 10406
ပြော 10407
加油站 10408
▁लेकिन 10409
最好的 10410
地下 10411
依然 10412
积分 10413
▁হবে 10414
不需要不需要 10415
Ka 10416
▁पास 10417
九月 10418
西路 10419
ហ 10420
nhằm 10421
更好 10422
이에요 10423
生气 10424
▁будут 10425
ที่เรา 10426
周末 10427
路口 10428
三个月 10429
લી 10430
误 10431
lem 10432
โลก 10433
互联网 10434
九号 10435
没想到 10436
었다 10437
หลักฐาน 10438
是为了 10439
行って 10440
کو 10441
таки 10442
ган 10443
голов 10444
打电话给 10445
ingin 10446
สุด 10447
ление 10448
連続 10449
を持って 10450
背景 10451
回访 10452
中の 10453
焼き 10454
没有人 10455
她们 10456
找我 10457
還是 10458
လုပ် 10459
どうぞ 10460
son 10461
▁пол 10462
▁đủ 10463
iki 10464
мне 10465
一半 10466
していました 10467
了这个 10468
官网 10469
여자 10470
됐 10471
▁thuận 10472
子供 10473
▁них 10474
让他们 10475
▁lãnh 10476
我一 10477
넘 10478
ขา 10479
零九 10480
пят 10481
جب 10482
增长 10483
さま 10484
妳 10485
传统 10486
nggak 10487
私も 10488
▁benar 10489
лин 10490
하지만 10491
が出 10492
一共 10493
检测 10494
接到 10495
没法 10496
都已经 10497
akhirnya 10498
دې 10499
のある 10500
▁گیا 10501
感受 10502
那我这边 10503
留下 10504
ュ 10505
мет 10506
想去 10507
вед 10508
сты 10509
乔 10510
▁думаю 10511
જો 10512
▁всех 10513
四点 10514
fo 10515
awa 10516
सर 10517
坂 10518
証 10519
ợ 10520
มันมี 10521
缩 10522
sel 10523
やすい 10524
其它 10525
setelah 10526
▁돈 10527
高中 10528
佐 10529
چە 10530
希 10531
者の 10532
工号 10533
好啦 10534
▁setiap 10535
对对对对 10536
หนี 10537
▁팔 10538
一名 10539
может 10540
此外 10541
这两天 10542
卵 10543
形成 10544
ଟ 10545
变更 10546
了他 10547
قر 10548
มาจาก 10549
ъ 10550
ไม้ 10551
運動 10552
另一 10553
သိ 10554
▁keluar 10555
你说的 10556
宣传 10557
合わせ 10558
막 10559
وار 10560
dah 10561
崎 10562
中に 10563
押 10564
эг 10565
balik 10566
上传 10567
엔 10568
▁umum 10569
所以我们 10570
ล่าสุด 10571
歌曲 10572
是他 10573
▁我要去 10574
стал 10575
တစ် 10576
可以去 10577
怎么说 10578
นึง 10579
とこ 10580
的意思 10581
一看 10582
ания 10583
这样吧 10584
▁байна 10585
▁چھ 10586
醉 10587
န်း 10588
อื่น 10589
qua 10590
什么问题 10591
せる 10592
▁эту 10593
▁مل 10594
律 10595
거든요 10596
在网上 10597
肚子 10598
เย็น 10599
动物 10600
比较多 10601
そうだ 10602
ті 10603
ګ 10604
籍 10605
лось 10606
रु 10607
对了 10608
躲 10609
今月 10610
给孩子 10611
莱 10612
咱们这边 10613
図 10614
我们家 10615
不是很 10616
ывает 10617
چھ 10618
相对 10619
什么都 10620
двести 10621
对他 10622
挡 10623
뭔 10624
筋 10625
เตรียม 10626
东路 10627
ligi 10628
だと思います 10629
▁mở 10630
함 10631
停止 10632
चि 10633
將 10634
ଙ୍କ 10635
这个情况 10636
全体 10637
窝 10638
オー 10639
▁lepas 10640
她说 10641
积极 10642
gara 10643
いただきます 10644
平均 10645
нес 10646
当初 10647
hat 10648
இ 10649
เหรอ 10650
ken 10651
귀 10652
一部分 10653
변 10654
観 10655
လေး 10656
我想看 10657
▁trú 10658
เซ 10659
構 10660
给了 10661
是一种 10662
▁tim 10663
多分 10664
そこに 10665
几次 10666
ақ 10667
仕 10668
西安 10669
讲的 10670
明确 10671
紙 10672
こんにちは 10673
sem 10674
相关的 10675
可惜 10676
明年 10677
ข้อมูล 10678
很高兴为您服务 10679
▁phường 10680
頼 10681
如果有 10682
▁hại 10683
出す 10684
恁 10685
las 10686
大変 10687
曹 10688
和你 10689
得了 10690
ピー 10691
مي 10692
▁رہے 10693
쪽 10694
▁الش 10695
卫生 10696
るの 10697
вол 10698
그러니까 10699
统一 10700
人工服务 10701
▁hoạch 10702
大部分 10703
持续 10704
යි 10705
してください 10706
也行 10707
午 10708
艾 10709
レン 10710
स्त 10711
▁mengatakan 10712
年的 10713
▁پا 10714
夹 10715
のでしょうか 10716
▁باید 10717
ेंगे 10718
раж 10719
干啥 10720
ٹر 10721
▁ngân 10722
โอ 10723
ผู้ชาย 10724
восемьдесят 10725
▁लोगों 10726
粒 10727
좀 10728
放弃 10729
综合 10730
画面 10731
ັດ 10732
这里是 10733
策 10734
▁몇 10735
表情 10736
సి 10737
म् 10738
肠 10739
กฎหมาย 10740
周六 10741
跟那个 10742
立即 10743
▁나오 10744
아직 10745
▁đấu 10746
があり 10747
ny 10748
রি 10749
話を 10750
购物 10751
冻 10752
▁tiêm 10753
ໍາ 10754
四月 10755
놀 10756
俊 10757
していく 10758
您先 10759
ほか 10760
工具 10761
跟他说 10762
ชม 10763
เล่า 10764
uan 10765
ร้อย 10766
▁diper 10767
零六 10768
சா 10769
有事 10770
塁 10771
他就是 10772
▁أو 10773
한번 10774
你要是 10775
ணும் 10776
▁এক 10777
девяносто 10778
一点儿 10779
▁cửa 10780
か月 10781
หลายคน 10782
一旦 10783
込んで 10784
嗯好 10785
ана 10786
総 10787
работ 10788
州市 10789
છ 10790
您稍等一下 10791
ன்னா 10792
нд 10793
戸 10794
tinggal 10795
▁sotib 10796
附近的 10797
距离 10798
且 10799
好吃 10800
ਣ 10801
▁बन 10802
代理 10803
核实一下 10804
教授 10805
▁ty 10806
妻 10807
今天的 10808
क्ष 10809
ट्र 10810
去买 10811
ຈ 10812
那个就是 10813
▁mulai 10814
જા 10815
항 10816
なんですね 10817
我刚 10818
打扰您了 10819
▁trách 10820
派出所 10821
邓 10822
▁yếu 10823
လေ 10824
আ 10825
承担 10826
如今 10827
들을 10828
▁वह 10829
벌 10830
sini 10831
larini 10832
әр 10833
sak 10834
ог 10835
意识 10836
sudah 10837
鸭 10838
每一个 10839
اک 10840
生意 10841
▁تک 10842
হা 10843
一把 10844
没错 10845
建立 10846
মি 10847
好谢谢 10848
不说 10849
▁mahal 10850
合わせて 10851
有多 10852
ନ୍ 10853
是最 10854
霸 10855
キャ 10856
हु 10857
ирован 10858
撮影 10859
▁అంటే 10860
ново 10861
கா 10862
ဝ 10863
창 10864
희 10865
डा 10866
▁کام 10867
▁એટલે 10868
私が 10869
้อ 10870
ワン 10871
范围 10872
我喜欢 10873
迹 10874
但是呢 10875
สิ่งที่ 10876
▁kerak 10877
nanti 10878
້າ 10879
จะไป 10880
作業 10881
صر 10882
satu 10883
焦 10884
装备 10885
頃 10886
tam 10887
kini 10888
這個 10889
▁હા 10890
ают 10891
فل 10892
发布 10893
ラー 10894
ในพื้นที่ 10895
25 10896
rib 10897
約 10898
อืม 10899
长期 10900
гі 10901
我只 10902
yi 10903
住了 10904
▁вос 10905
一致 10906
▁merasa 10907
ダー 10908
▁kesehatan 10909
▁говорит 10910
زى 10911
▁அவ 10912
▁tạm 10913
сов 10914
裙 10915
が出て 10916
北路 10917
เพลง 10918
我还是 10919
多的 10920
ому 10921
統 10922
mà 10923
చే 10924
特別 10925
▁поэтому 10926
群众 10927
离婚 10928
ญ 10929
เช้า 10930
一度 10931
患 10932
四零零 10933
和我 10934
수가 10935
che 10936
我们可以 10937
ости 10938
▁tải 10939
цы 10940
เข้าใจ 10941
を見せ 10942
忘记 10943
となった 10944
اپ 10945
ここまで 10946
行政 10947
为何 10948
没用 10949
法庭 10950
岭 10951
조금 10952
مة 10953
채 10954
ଖ 10955
鼻 10956
瑶 10957
อยู่แล้ว 10958
砂 10959
ที่บ้าน 10960
ల్ల 10961
โรงพยาบาล 10962
▁agar 10963
ご覧 10964
街道 10965
您自己 10966
▁gặp 10967
14 10968
了就 10969
一回 10970
วันที่ 10971
全面 10972
مار 10973
然后就是 10974
棋 10975
遍 10976
▁nhiễm 10977
其实我 10978
内部 10979
八月 10980
িত 10981
цел 10982
伦 10983
殿 10984
一句话 10985
設 10986
欣 10987
準備 10988
မှ 10989
▁W 10990
不动 10991
tentu 10992
他要 10993
二十五 10994
atur 10995
不容易 10996
いません 10997
警戒 10998
男的 10999
幺七 11000
有啊 11001
晴れ 11002
تۇر 11003
養 11004
請 11005
pro 11006
▁sao 11007
幺六 11008
順 11009
らしい 11010
一点点 11011
我打 11012
お店 11013
бай 11014
发了 11015
我帮您 11016
ান 11017
不开 11018
企 11019
အဲ့ 11020
碗 11021
まり 11022
尿 11023
કા 11024
สิ่ง 11025
ファ 11026
んの 11027
躺 11028
那什么 11029
思想 11030
boss 11031
న్ 11032
▁tuyên 11033
▁থেকে 11034
테 11035
สภาพ 11036
▁같 11037
પા 11038
హ 11039
讲话 11040
نظر 11041
уг 11042
我覺得 11043
三三 11044
เต 11045
▁এ 11046
xi 11047
▁چې 11048
aran 11049
想问一下 11050
珍 11051
лай 11052
первый 11053
▁этим 11054
真正的 11055
六七 11056
农村 11057
巧 11058
아이 11059
싸 11060
有两个 11061
それから 11062
вар 11063
이라 11064
▁약간 11065
のように 11066
▁نمی 11067
้ม 11068
有哪些 11069
报道 11070
▁bỏ 11071
幺九 11072
พวก 11073
这位 11074
近期 11075
怎么回事 11076
чно 11077
แน่นอน 11078
▁nghĩa 11079
踢 11080
週間 11081
mama 11082
▁почему 11083
мас 11084
开放 11085
দের 11086
▁kế 11087
▁буду 11088
危险 11089
सि 11090
▁mọi 11091
監督 11092
凶 11093
ម្ 11094
起こ 11095
패 11096
دل 11097
ian 11098
보고 11099
سب 11100
лов 11101
零四 11102
ช่วยเหลือ 11103
hin 11104
合理 11105
粗 11106
力量 11107
邀请 11108
妙 11109
▁mẹ 11110
축 11111
应用 11112
んじゃない 11113
▁정말 11114
没事儿 11115
女朋友 11116
▁mỗi 11117
สามี 11118
тур 11119
langan 11120
에도 11121
▁जाते 11122
幼 11123
ҳ 11124
আপনি 11125
帖 11126
はこの 11127
长的 11128
阿姨 11129
▁tiết 11130
是这样子的 11131
ھا 11132
▁الج 11133
説明 11134
今回は 11135
사실 11136
आई 11137
您您 11138
感到 11139
▁کھیل 11140
驾 11141
一月 11142
新たな 11143
リン 11144
되고 11145
投保 11146
ارت 11147
那个呃 11148
сын 11149
のも 11150
фе 11151
ились 11152
جه 11153
nasi 11154
ਡ 11155
ใกล้ 11156
ết 11157
16 11158
▁тогда 11159
vì 11160
圧 11161
瞎 11162
四川 11163
十一月 11164
▁زیادہ 11165
기가 11166
ঘ 11167
地上 11168
呃这个 11169
จะได้ 11170
気が 11171
咬 11172
接着 11173
ໃ 11174
pur 11175
说说 11176
chúng 11177
▁kecil 11178
减肥 11179
絶対 11180
你帮我 11181
▁چا 11182
▁लग 11183
artinya 11184
ลด 11185
アウト 11186
動き 11187
힘 11188
實 11189
董 11190
習 11191
对象 11192
今日の 11193
怎麼 11194
成立 11195
紧张 11196
ິ 11197
ภูมิ 11198
▁xem 11199
ье 11200
гла 11201
ответ 11202
捜査 11203
九五 11204
▁मु 11205
නි 11206
杂 11207
一片 11208
อด 11209
ッと 11210
鞋子 11211
▁khởi 11212
когда 11213
人たち 11214
提到 11215
语言 11216
ところで 11217
▁mendapatkan 11218
▁đa 11219
唔知 11220
他有 11221
▁суд 11222
류 11223
রো 11224
想法 11225
どれ 11226
즈 11227
▁lang 11228
▁день 11229
聞き 11230
डी 11231
翻译 11232
运营 11233
200 11234
▁رہا 11235
多い 11236
枝 11237
صل 11238
только 11239
سه 11240
ルー 11241
嫁 11242
ତି 11243
菌 11244
ొ 11245
còn 11246
▁ghi 11247
다는 11248
领取 11249
ったり 11250
ましたね 11251
皮肤 11252
ខ 11253
華 11254
盛り 11255
ここは 11256
小小 11257
기는 11258
きれい 11259
ปลา 11260
इसके 11261
ập 11262
ường 11263
бир 11264
退出 11265
智能 11266
正常的 11267
▁такие 11268
针 11269
▁Kan 11270
골 11271
13 11272
概念 11273
너무 11274
您就 11275
ড 11276
北海道 11277
ますよね 11278
돌 11279
站十千伏 11280
▁ora 11281
hai 11282
▁ее 11283
понят 11284
得很 11285
▁공부 11286
ừ 11287
้ง 11288
没有问题 11289
▁делать 11290
िंग 11291
惨 11292
玩的 11293
▁ଅ 11294
ยาว 11295
かん 11296
에서는 11297
bes 11298
だけど 11299
่อ 11300
现象 11301
▁کې 11302
▁الف 11303
它这个 11304
แทน 11305
▁через 11306
▁वहाँ 11307
ศรี 11308
ih 11309
飯 11310
ท่า 11311
啊这个 11312
九八 11313
就得 11314
挣 11315
гэ 11316
றி 11317
เออ 11318
真的很 11319
这款 11320
แห 11321
艺术 11322
不一定 11323
ட்டி 11324
程序 11325
咖啡 11326
サー 11327
▁uang 11328
kur 11329
▁ساتھ 11330
িক 11331
ىلى 11332
五月 11333
ئۆ 11334
からは 11335
ขับรถ 11336
डि 11337
要做 11338
ภรรยา 11339
▁phú 11340
公开 11341
ຂ 11342
お金 11343
拿着 11344
кла 11345
はず 11346
▁jauh 11347
하여 11348
그런데 11349
လာ 11350
沢 11351
▁barang 11352
kal 11353
六号 11354
みて 11355
少年 11356
प्र 11357
侵 11358
まって 11359
аем 11360
바로 11361
यहाँ 11362
▁всегда 11363
炮 11364
плат 11365
拔 11366
▁siapa 11367
啫 11368
गर 11369
கூட 11370
▁jika 11371
▁હોય 11372
전에 11373
祝您生活愉快再见 11374
找个 11375
十月 11376
ઓ 11377
在外面 11378
晨 11379
元小蛋你好 11380
▁menu 11381
臺 11382
你又 11383
谢谢您 11384
尊 11385
名称 11386
▁중국 11387
相当于 11388
லா 11389
増え 11390
队长 11391
嗯嗯嗯 11392
关心 11393
हम 11394
我说我 11395
らい 11396
खा 11397
ကြီး 11398
เลี้ยง 11399
ือ 11400
өө 11401
里头 11402
কর 11403
▁дело 11404
请问一下 11405
▁सही 11406
▁엄청 11407
larga 11408
▁mela 11409
臺灣 11410
kom 11411
施設 11412
られない 11413
裂 11414
▁từng 11415
termasuk 11416
นั่น 11417
▁именно 11418
ంద 11419
க்கா 11420
オリンピック 11421
蒸 11422
여행 11423
▁வர 11424
那他 11425
一定会 11426
邦 11427
出し 11428
начал 11429
สิทธิ์ 11430
锋 11431
徒 11432
▁giám 11433
▁áp 11434
我很 11435
мин 11436
去吧 11437
说这个 11438
วี 11439
巡 11440
八九 11441
腕 11442
十一点 11443
ము 11444
冬季 11445
義 11446
チャ 11447
回头 11448
cer 11449
arah 11450
ස් 11451
▁男式 11452
ਟ 11453
لەر 11454
ছি 11455
ள் 11456
厦门 11457
еж 11458
وال 11459
bus 11460
▁yên 11461
休闲 11462
倾 11463
ob 11464
मैं 11465
ပ် 11466
日子 11467
жу 11468
تب 11469
สําคัญ 11470
阅读 11471
▁मेरी 11472
到这个 11473
▁وقت 11474
ล้าน 11475
bun 11476
重复 11477
东方 11478
صح 11479
▁रख 11480
在这儿 11481
▁khả 11482
厅 11483
形式 11484
철 11485
▁وہ 11486
全て 11487
▁phía 11488
เลข 11489
说法 11490
孩子的 11491
旺 11492
坦 11493
นัด 11494
技術 11495
好友 11496
过程中 11497
▁돼 11498
nding 11499
登場 11500
был 11501
一开始 11502
жел 11503
头发 11504
▁phong 11505
就去 11506
второй 11507
दू 11508
ตัด 11509
舍 11510
▁juda 11511
微博 11512
選挙 11513
▁করা 11514
خر 11515
kali 11516
他自己 11517
饱 11518
▁đảo 11519
일이 11520
เพียง 11521
ыр 11522
串 11523
一周 11524
晕 11525
不多 11526
▁hoa 11527
验证 11528
ନି 11529
ประเด็น 11530
不愿意 11531
▁ئە 11532
▁banget 11533
▁இருக்க 11534
五零 11535
ってきた 11536
必须要 11537
zo 11538
นาที 11539
сон 11540
▁سب 11541
败 11542
发的 11543
主任 11544
即使 11545
映像 11546
引起 11547
聽 11548
กรรม 11549
似乎 11550
毛衣 11551
っちゃ 11552
най 11553
ยิ่ง 11554
勾 11555
หญิง 11556
下周 11557
줘 11558
ড়া 11559
沖縄 11560
วด 11561
ួ 11562
이번 11563
かもしれません 11564
▁دوست 11565
ඩ 11566
想象 11567
通常 11568
でございます 11569
mula 11570
到那个 11571
追い 11572
run 11573
出場 11574
ા 11575
คนร้าย 11576
남자 11577
時期 11578
作り 11579
▁بن 11580
当年 11581
ยุ 11582
밥 11583
老是 11584
在那里 11585
続け 11586
黑色 11587
▁всем 11588
▁хорош 11589
叫什么名字 11590
เกิดเหตุ 11591
然后我就 11592
但是你 11593
あす 11594
아닌 11595
▁nag 11596
建筑 11597
盐 11598
ိုး 11599
▁روز 11600
гер 11601
▁main 11602
七月 11603
定损 11604
▁그때 11605
▁କରି 11606
▁friend 11607
▁lễ 11608
記 11609
가능 11610
тро 11611
▁समय 11612
ик 11613
ใต้ 11614
▁châu 11615
絵 11616
一段时间 11617
洁 11618
年に 11619
பா 11620
อบ 11621
▁gue 11622
ton 11623
出门 11624
ଣ 11625
还不错 11626
验 11627
▁thái 11628
▁dục 11629
것은 11630
公共 11631
▁dài 11632
最初 11633
फ़ 11634
单号 11635
成长 11636
sus 11637
ก็ยัง 11638
ફ 11639
记住 11640
ゲ 11641
浪费 11642
▁pagi 11643
给您发 11644
되어 11645
机器 11646
ề 11647
તે 11648
▁ஏ 11649
怎么会 11650
对这个 11651
▁kun 11652
17 11653
を取り 11654
পা 11655
佢哋 11656
年間 11657
झ 11658
昂 11659
สด 11660
快速 11661
▁પછી 11662
قی 11663
习 11664
двадцать 11665
ग् 11666
十八号 11667
满足 11668
バン 11669
مہ 11670
生き 11671
iq 11672
▁yung 11673
是一样的 11674
▁negeri 11675
しながら 11676
第二天 11677
缴 11678
あって 11679
懒 11680
一下吧 11681
大量 11682
数学 11683
的内容 11684
get 11685
▁எங்க 11686
各地 11687
杆 11688
หม 11689
핑 11690
있었 11691
▁gọi 11692
敗 11693
这不 11694
ambil 11695
ildi 11696
az 11697
出生 11698
▁अगर 11699
を使って 11700
เท่า 11701
秘 11702
是非常 11703
ดิ 11704
▁phí 11705
jat 11706
ந்து 11707
あとは 11708
有时 11709
融 11710
补充 11711
サン 11712
跨 11713
စ် 11714
違 11715
它们 11716
看到您 11717
的话你 11718
▁chiq 11719
तर 11720
魂 11721
巨大 11722
妻子 11723
区别 11724
じゃなくて 11725
▁for 11726
Х 11727
फिल्म 11728
公寓 11729
టి 11730
เจ 11731
变得 11732
ฝ 11733
어서 11734
放送 11735
没有任何 11736
ていく 11737
请问您是 11738
太大 11739
สั่ง 11740
નું 11741
ො 11742
ром 11743
的课程 11744
খা 11745
▁mục 11746
四年 11747
ゅ 11748
پا 11749
眠 11750
倒是 11751
เปลี่ยน 11752
커 11753
ประจํา 11754
ື 11755
мест 11756
浓 11757
운동 11758
植物 11759
๋ 11760
方は 11761
▁tất 11762
病院 11763
И 11764
我记得 11765
上门 11766
続き 11767
核心 11768
八千 11769
ิก 11770
▁करता 11771
这个月 11772
站在 11773
▁бір 11774
อาการ 11775
外教 11776
ହି 11777
献 11778
就是呃 11779
のだ 11780
▁सकता 11781
イメージ 11782
▁قىل 11783
소리 11784
답 11785
더라 11786
સ્ 11787
▁కూడా 11788
áo 11789
ун 11790
有啲 11791
แดง 11792
ណ 11793
俗 11794
ల్ 11795
들어 11796
呃您 11797
▁tây 11798
เพราะฉะนั้น 11799
▁rộng 11800
に出 11801
▁khiến 11802
这首歌 11803
给她 11804
▁வி 11805
一款 11806
踏 11807
墨 11808
▁mất 11809
也不能 11810
台風 11811
▁नाम 11812
اط 11813
▁तू 11814
不让 11815
selamat 11816
ッド 11817
▁ему 11818
nas 11819
随着 11820
官方 11821
일본 11822
ita 11823
一期 11824
ngày 11825
မ်း 11826
胶 11827
物业 11828
னி 11829
▁것도 11830
जे 11831
二是 11832
▁thôi 11833
డి 11834
身份证号 11835
▁cô 11836
男孩 11837
тре 11838
ろう 11839
ところが 11840
рт 11841
害怕 11842
烤 11843
उन् 11844
آپ 11845
從 11846
ோம் 11847
呃呃 11848
老百姓 11849
那个时候 11850
อม 11851
▁مر 11852
けて 11853
ついて 11854
حق 11855
危 11856
銀 11857
好久 11858
gal 11859
غۇ 11860
bagi 11861
四号 11862
思考 11863
ฝน 11864
好再见 11865
食物 11866
劝 11867
饿 11868
న్న 11869
zbekiston 11870
民族 11871
是我的 11872
情绪 11873
ê 11874
플 11875
男生 11876
ху 11877
ลม 11878
安心 11879
▁ekan 11880
▁सरकार 11881
▁sơ 11882
▁setelah 11883
因为它 11884
那您这边 11885
确认一下 11886
那个是 11887
兆 11888
эт 11889
خو 11890
mal 11891
过年 11892
这事 11893
▁हुए 11894
ことに 11895
▁теперь 11896
我要看 11897
ますか 11898
面前 11899
现在已经 11900
ชั้น 11901
▁semakin 11902
协议 11903
하면서 11904
昼 11905
かも 11906
ไม่เคย 11907
чер 11908
换了 11909
پی 11910
▁kiểu 11911
两点 11912
版本 11913
▁मेरा 11914
▁такая 11915
dù 11916
九零 11917
▁biện 11918
二零零 11919
使い 11920
備 11921
ới 11922
还行 11923
玲 11924
晶 11925
ۆ 11926
きのう 11927
温度 11928
一大 11929
pri 11930
Д 11931
خت 11932
に入って 11933
都很 11934
А 11935
ဲ 11936
ंस 11937
什么什么 11938
嗨元小蛋 11939
のような 11940
答应 11941
いち 11942
モン 11943
我听 11944
束 11945
ками 11946
網 11947
่อง 11948
пр 11949
公路 11950
حد 11951
万人 11952
子的 11953
复杂 11954
▁بۇ 11955
สิบ 11956
60 11957
rap 11958
斜 11959
我也不 11960
我们都 11961
▁terlalu 11962
سە 11963
のために 11964
อะไรอย่างนี้ 11965
ท้อง 11966
食べて 11967
大酒店 11968
行了 11969
يات 11970
練習 11971
обы 11972
浙江 11973
瓦 11974
▁пятьдесят 11975
▁कौन 11976
мат 11977
的心 11978
එ 11979
چی 11980
まま 11981
었어요 11982
หาก 11983
▁tối 11984
그래도 11985
▁cổ 11986
▁mô 11987
となりました 11988
▁naman 11989
▁이상 11990
رب 11991
เท่านั้น 11992
다음 11993
ものが 11994
put 11995
เร็ว 11996
▁chiều 11997
状况 11998
ร่าง 11999
cùng 12000
全球 12001
续 12002
ตอนนั้น 12003
鳥 12004
Pa 12005
るのは 12006
取得 12007
▁видео 12008
这两 12009
▁చెప్ప 12010
不方便 12011
эм 12012
처럼 12013
莲 12014
▁lấy 12015
疑问 12016
гүй 12017
いで 12018
рас 12019
债 12020
十几 12021
答え 12022
▁đức 12023
辞 12024
▁thuốc 12025
▁jangan 12026
舒服 12027
経験 12028
不认识 12029
ปรับ 12030
▁سن 12031
わない 12032
▁harga 12033
▁वाले 12034
中国人 12035
区域 12036
โทร 12037
گەن 12038
▁thư 12039
กอง 12040
財 12041
▁대한 12042
我们这 12043
アップ 12044
dua 12045
的确 12046
ip 12047
جد 12048
んだろう 12049
▁ای 12050
中国的 12051
▁xong 12052
تې 12053
맞 12054
ฝาก 12055
時候 12056
ڭ 12057
補 12058
ૂ 12059
▁pakai 12060
▁chi 12061
厕所 12062
uran 12063
萨 12064
選手が 12065
大雨 12066
дем 12067
临时 12068
তার 12069
▁kung 12070
感谢您 12071
六年 12072
商量 12073
戻 12074
你跟 12075
이가 12076
多长时间 12077
すれば 12078
▁giang 12079
人も 12080
ron 12081
我不想 12082
人才 12083
不算 12084
ការ 12085
rea 12086
闭 12087
实施 12088
总共 12089
शि 12090
たり 12091
▁phá 12092
▁같애 12093
汪 12094
டை 12095
kas 12096
တို့ 12097
▁الب 12098
的手机 12099
尖 12100
六零 12101
▁영화 12102
有点儿 12103
言った 12104
ahkan 12105
นายก 12106
孤 12107
каз 12108
เกิน 12109
这是一个 12110
アル 12111
查到 12112
имени 12113
▁hiểm 12114
ছিল 12115
ении 12116
▁बारे 12117
เกี่ยวกับ 12118
どういう 12119
верх 12120
人を 12121
シン 12122
เต็ม 12123
暑 12124
▁ପ 12125
▁bapak 12126
夫妻 12127
▁அவங்க 12128
nam 12129
手机上 12130
อยากให้ 12131
bahwa 12132
اخت 12133
충 12134
jen 12135
当時 12136
咁样 12137
쳐 12138
tara 12139
的情况下 12140
▁មាន 12141
这个钱 12142
क्या 12143
てきた 12144
▁ещё 12145
블 12146
しかも 12147
友達 12148
ちょ 12149
▁செ 12150
保费 12151
屁 12152
不着 12153
основ 12154
少了 12155
不仅 12156
还真 12157
뒤 12158
ần 12159
维修 12160
试一下 12161
脏 12162
▁cerita 12163
下一个 12164
所以呢 12165
颜 12166
何で 12167
试听 12168
柱 12169
bahan 12170
市場 12171
在哪儿 12172
if 12173
唱歌 12174
礼物 12175
有那个 12176
什么情况 12177
مەن 12178
কি 12179
buka 12180
則 12181
二五 12182
▁góp 12183
十五号 12184
จากการ 12185
buat 12186
」「 12187
เช 12188
止め 12189
▁ជា 12190
▁같아 12191
、1 12192
、2 12193
就这么 12194
わけです 12195
log 12196
เราจะ 12197
のよ 12198
รายงาน 12199
女装 12200
ก็ไม่ 12201
環境 12202
长时间 12203
因为您 12204
▁сделать 12205
火车 12206
ắn 12207
▁chuẩn 12208
洛 12209
win 12210
tis 12211
এ 12212
就跟 12213
구나 12214
ub 12215
なり 12216
리는 12217
拒绝 12218
சு 12219
什么意思 12220
了呢 12221
您看一下 12222
扶 12223
ーション 12224
認 12225
▁हमारे 12226
set 12227
เหมือนกับ 12228
그랬 12229
ショ 12230
▁tàu 12231
ren 12232
▁嗯我 12233
とても 12234
我需要 12235
▁哦哦 12236
自信 12237
▁môi 12238
他还 12239
lai 12240
行った 12241
▁好的那 12242
扯 12243
યા 12244
确 12245
为什么不 12246
ியா 12247
رك 12248
蜜 12249
لان 12250
はどう 12251
련 12252
▁বা 12253
▁момент 12254
ig 12255
جان 12256
ัน 12257
我才 12258
อัน 12259
꾸 12260
лер 12261
牵 12262
るか 12263
勒 12264
乎 12265
次の 12266
那行 12267
వు 12268
▁виде 12269
един 12270
要么 12271
▁ھە 12272
nan 12273
しまう 12274
кий 12275
的一 12276
خط 12277
жал 12278
тал 12279
وأ 12280
続 12281
ское 12282
느 12283
这么说 12284
supaya 12285
配置 12286
например 12287
릴 12288
▁사람이 12289
振り 12290
氣 12291
▁awak 12292
をお 12293
thưa 12294
늘 12295
这里面 12296
બા 12297
తో 12298
▁cực 12299
ং 12300
▁எனக்கு 12301
sul 12302
پاکستان 12303
请你 12304
参考 12305
лож 12306
hay 12307
▁situ 12308
▁несколько 12309
刚好 12310
理想 12311
是很 12312
頑張 12313
াই 12314
肝 12315
เขาจะ 12316
年代 12317
▁가장 12318
엄마 12319
性格 12320
侯 12321
▁bagian 12322
밖에 12323
就是要 12324
辺 12325
避難 12326
▁후 12327
▁long 12328
二八 12329
變 12330
你家 12331
挨 12332
লি 12333
▁구매 12334
ingat 12335
▁होने 12336
链接 12337
کہ 12338
巷 12339
ہی 12340
اور 12341
▁rakyat 12342
▁hasil 12343
一声 12344
居民 12345
୍ୟ 12346
违 12347
▁tinh 12348
グラ 12349
จิต 12350
ก่อเหตุ 12351
چه 12352
▁tai 12353
大谷 12354
我就不 12355
жил 12356
ंद 12357
둘 12358
▁thích 12359
涛 12360
押し 12361
这个号码 12362
อากาศ 12363
喔 12364
交警 12365
▁bilang 12366
ขี่ 12367
▁lainnya 12368
などで 12369
挑战 12370
截 12371
というふうに 12372
加绒 12373
▁சொல்லு 12374
行き 12375
召 12376
다니 12377
先把 12378
وش 12379
దు 12380
هل 12381
符 12382
撒 12383
態 12384
शन 12385
统 12386
รายการ 12387
赚钱 12388
▁mắc 12389
▁있을 12390
nik 12391
提现 12392
ость 12393
ਦੀ 12394
见过 12395
要看 12396
론 12397
弃 12398
日期 12399
▁кол 12400
락 12401
三月 12402
آج 12403
▁nhiệt 12404
கே 12405
あまり 12406
是用 12407
▁있지 12408
不安 12409
七号 12410
▁எல்லாம் 12411
▁ekonomi 12412
制作 12413
وف 12414
说过 12415
秘密 12416
قة 12417
婚姻 12418
问他 12419
مون 12420
▁uy 12421
坡 12422
가요 12423
هذه 12424
萌 12425
每天都 12426
sam 12427
تي 12428
有名 12429
ရှ 12430
ほら 12431
疾病 12432
ティー 12433
豊 12434
नो 12435
你打 12436
biasanya 12437
的故事 12438
와서 12439
聴 12440
▁eh 12441
sekarang 12442
の方が 12443
ड़ी 12444
▁ký 12445
矿 12446
这也是 12447
việc 12448
接听 12449
魏 12450
晓得 12451
▁chữa 12452
侪 12453
그냥 12454
喷 12455
ම් 12456
sho 12457
▁стар 12458
▁التي 12459
您之前 12460
正解 12461
的声音 12462
ternyata 12463
gas 12464
็ด 12465
طور 12466
三五 12467
應該 12468
不再 12469
じゅう 12470
很久 12471
钓 12472
奪 12473
空气 12474
遺 12475
แล้วก็มี 12476
▁terkait 12477
▁phân 12478
级的 12479
というところ 12480
دہ 12481
週 12482
رن 12483
仓 12484
态度 12485
잖아요 12486
โรงเรียน 12487
▁儿童 12488
▁गर् 12489
朵 12490
願 12491
рад 12492
guna 12493
独立 12494
▁đô 12495
میرے 12496
▁nama 12497
诊 12498
따라 12499
ไล่ 12500
对您 12501
سٹ 12502
ลูกชาย 12503
也得 12504
ству 12505
▁nâng 12506
▁mong 12507
力を 12508
कै 12509
不需要谢谢 12510
▁bạc 12511
屋企 12512
▁ਹੈ 12513
пал 12514
▁sedikit 12515
거나 12516
關 12517
▁nữ 12518
▁तरह 12519
给我发 12520
धि 12521
поэтому 12522
筒 12523
明星 12524
六月 12525
▁bay 12526
扔 12527
پر 12528
िया 12529
都说 12530
cur 12531
ские 12532
일에 12533
ตลาด 12534
发货 12535
▁хочу 12536
▁kurang 12537
这就 12538
tung 12539
▁trần 12540
ภา 12541
意識 12542
二十四 12543
的还是 12544
আমাদের 12545
▁tuần 12546
听见 12547
决 12548
哪一个 12549
갔다 12550
تمام 12551
녀 12552
住院 12553
▁তার 12554
ゼロ 12555
машин 12556
級 12557
迁 12558
ến 12559
аю 12560
ex 12561
يم 12562
bởi 12563
亭 12564
孝 12565
भारत 12566
めっちゃ 12567
之外 12568
ийг 12569
樣 12570
▁hạ 12571
พัน 12572
行不行 12573
tun 12574
▁informasi 12575
中山 12576
lanjut 12577
كي 12578
把这 12579
▁которая 12580
男朋友 12581
гр 12582
それぞれ 12583
大了 12584
тр 12585
结构 12586
我不需要 12587
▁એક 12588
趁 12589
▁بنا 12590
ola 12591
十号 12592
自宅 12593
မျိုး 12594
丑 12595
那如果 12596
了以后 12597
ੂ 12598
麻烦你 12599
для 12600
сь 12601
▁thuật 12602
虾 12603
疯 12604
上学 12605
▁cây 12606
欢 12607
적이 12608
させ 12609
بة 12610
หาย 12611
ଚ 12612
▁تن 12613
凭 12614
حل 12615
又要 12616
စား 12617
偶 12618
悪い 12619
ٹھ 12620
мед 12621
▁чего 12622
memang 12623
ઉ 12624
太多了 12625
よし 12626
二零一 12627
動画 12628
▁edi 12629
ై 12630
▁особ 12631
염 12632
动作 12633
ளி 12634
ဘူး 12635
ありません 12636
读书 12637
▁계속 12638
ခဲ့ 12639
사람 12640
دان 12641
无聊 12642
ishi 12643
కొ 12644
▁созда 12645
sesuai 12646
邮件 12647
пыта 12648
ัย 12649
国際 12650
今朝 12651
ىتى 12652
溜 12653
▁seluruh 12654
句话 12655
สว 12656
بال 12657
六千 12658
ลี 12659
芝 12660
лег 12661
它就 12662
是属于 12663
说的是 12664
逸 12665
自分で 12666
月に 12667
moqda 12668
保险公司 12669
กันไป 12670
▁ແລະ 12671
的价格 12672
录音 12673
眉 12674
剪 12675
လဲ 12676
куп 12677
▁হয় 12678
ஜ 12679
وان 12680
一生 12681
地球 12682
下的 12683
ஒ 12684
お伝え 12685
茂 12686
▁دیکھ 12687
▁lời 12688
kes 12689
包装 12690
следу 12691
上网 12692
伏 12693
盆 12694
pres 12695
돼 12696
嘿 12697
五五 12698
▁qilish 12699
시간 12700
буд 12701
แถว 12702
教室 12703
ây 12704
姓名 12705
▁ਆ 12706
др 12707
見た 12708
ских 12709
饭店 12710
仲有 12711
ほとんど 12712
については 12713
নের 12714
شي 12715
ประเทศไทย 12716
ゴール 12717
錢 12718
ことも 12719
вать 12720
▁हुई 12721
立て 12722
▁tubuh 12723
販売 12724
特别好 12725
ۋا 12726
alam 12727
導 12728
▁பண்ண 12729
별 12730
डे 12731
さんも 12732
ပဲ 12733
一个问题 12734
▁перед 12735
你他妈 12736
▁위해 12737
휴 12738
咨询一下 12739
就开始 12740
▁kerana 12741
うまく 12742
몸 12743
▁هست 12744
さっき 12745
▁hậu 12746
もいい 12747
楚 12748
ның 12749
▁अपना 12750
负责人 12751
到期 12752
就知道 12753
▁duy 12754
担当 12755
あんまり 12756
商务 12757
ins 12758
队伍 12759
▁xuân 12760
그는 12761
वर 12762
ция 12763
哎呦 12764
चे 12765
多次 12766
▁trật 12767
投入 12768
胎 12769
смотр 12770
打扰 12771
давайте 12772
▁때문에 12773
อั 12774
stra 12775
毋是 12776
就是因为 12777
然后这个 12778
▁चु 12779
您这 12780
さまざまな 12781
▁tanpa 12782
里面有 12783
ံ 12784
购买的 12785
วาง 12786
去过 12787
หลังจาก 12788
허 12789
▁media 12790
ପା 12791
ไอ้ 12792
ຸ 12793
吊 12794
桶 12795
ья 12796
masa 12797
ẻ 12798
キー 12799
汇报 12800
ologi 12801
्स 12802
安徽 12803
▁같이 12804
观察 12805
页面 12806
だね 12807
Be 12808
ิต 12809
кам 12810
到我 12811
ôn 12812
▁सबसे 12813
地图 12814
更改 12815
训练 12816
برا 12817
壳 12818
こちらです 12819
谋 12820
lish 12821
ළ 12822
โทษ 12823
对对对对对 12824
졌 12825
マイ 12826
▁যে 12827
的服务 12828
ด้วยกัน 12829
需要您 12830
રો 12831
완 12832
ฤ 12833
举报 12834
日常 12835
▁بىلەن 12836
ปา 12837
ことし 12838
墓 12839
着呢 12840
邪 12841
分かる 12842
▁uni 12843
现在我 12844
कू 12845
到你 12846
นอก 12847
чет 12848
这个呃 12849
などが 12850
들의 12851
最終 12852
pon 12853
접 12854
고요 12855
きょうは 12856
▁luận 12857
ီး 12858
花钱 12859
不可以 12860
五万 12861
株 12862
城区 12863
өл 12864
かない 12865
仪 12866
たの 12867
ガー 12868
蔡 12869
紹介 12870
▁தெரி 12871
▁الك 12872
▁کل 12873
ために 12874
这方面 12875
มิ 12876
鮮 12877
หลวง 12878
储 12879
▁kemarin 12880
сколько 12881
干吗 12882
▁شده 12883
▁ئو 12884
网点 12885
万一 12886
▁могу 12887
показ 12888
akibat 12889
略 12890
気温 12891
个工作日 12892
えない 12893
起来了 12894
したのは 12895
▁berapa 12896
人口 12897
หลาน 12898
angkat 12899
ئى 12900
愉快 12901
berarti 12902
ников 12903
ټ 12904
ள்ள 12905
ận 12906
学会 12907
▁다른 12908
్య 12909
熟悉 12910
納 12911
序 12912
狠 12913
▁khá 12914
也不知道 12915
bawa 12916
회사 12917
▁사회 12918
最後 12919
捡 12920
稍 12921
の皆さん 12922
กรณี 12923
ସେ 12924
ධ 12925
ปรากฏว่า 12926
ước 12927
ロン 12928
▁bola 12929
二七 12930
梨 12931
ใด 12932
량 12933
У 12934
ight 12935
岳 12936
▁ikki 12937
壮 12938
加厚 12939
тели 12940
彼女 12941
▁सोच 12942
兽 12943
的话我们 12944
மாதிரி 12945
▁가서 12946
怀疑 12947
ап 12948
られます 12949
连接 12950
▁jokowi 12951
型的 12952
ฆ่า 12953
になり 12954
我爸 12955
аться 12956
ấn 12957
仇 12958
梦想 12959
떠 12960
后天 12961
裤子 12962
青年 12963
semua 12964
と同じ 12965
end 12966
กล่าว 12967
登陆 12968
గు 12969
اخ 12970
国の 12971
娃 12972
ุน 12973
จบ 12974
짜 12975
ย่า 12976
删 12977
อาจารย์ 12978
たちが 12979
套餐 12980
๒๐ 12981
慌 12982
ځ 12983
න්න 12984
▁càng 12985
我问一下 12986
活躍 12987
▁उसको 12988
ati 12989
▁सौ 12990
老家 12991
▁đẩy 12992
จ่าย 12993
চা 12994
তো 12995
渠道 12996
世纪 12997
ผมก็ 12998
可不可以 12999
事业 13000
▁olib 13001
誉 13002
தே 13003
зем 13004
三二 13005
дать 13006
十个 13007
一到 13008
▁होते 13009
主义 13010
착 13011
放到 13012
ด้วยนะคะ 13013
iti 13014
らず 13015
售后 13016
投げ 13017
tes 13018
▁បាន 13019
▁આપ 13020
对我们 13021
oli 13022
誒 13023
нибудь 13024
零点 13025
そういった 13026
まさに 13027
దా 13028
小明 13029
现在还 13030
结合 13031
都唔 13032
▁আমার 13033
你你你 13034
مج 13035
▁இருக்கும் 13036
タイ 13037
跟他们 13038
أس 13039
野菜 13040
дев 13041
▁tangan 13042
ို 13043
一波 13044
การเมือง 13045
▁bekerja 13046
だし 13047
实验 13048
мог 13049
▁갈 13050
ปฏิบัติ 13051
避免 13052
▁cục 13053
抜 13054
庙 13055
做过 13056
手を 13057
лив 13058
你来 13059
劇 13060
າຍ 13061
っていうのが 13062
▁육 13063
艳 13064
肖 13065
▁самом 13066
重大 13067
不是不是 13068
ែ 13069
不是你 13070
дав 13071
kem 13072
晋 13073
많이 13074
一次性 13075
లి 13076
いただいて 13077
lis 13078
которые 13079
也挺 13080
одна 13081
ਖ 13082
另 13083
تۇ 13084
ওয়া 13085
บิน 13086
▁đăng 13087
航空 13088
ぜ 13089
bisa 13090
隠 13091
没钱 13092
▁딱 13093
撮 13094
讯 13095
逃げ 13096
▁cung 13097
大概是 13098
耶 13099
ढ 13100
せて 13101
蛇 13102
▁달 13103
ร้อน 13104
▁언니 13105
製 13106
กู 13107
收益 13108
ổ 13109
돌아 13110
展示 13111
AB 13112
▁없다 13113
拥有 13114
バイ 13115
यर 13116
▁nhỏ 13117
自分が 13118
內 13119
ਸ਼ 13120
ေး 13121
キロ 13122
씩 13123
来个 13124
லி 13125
我得 13126
ナー 13127
堡 13128
悠 13129
開発 13130
戒 13131
перво 13132
кс 13133
ย์ 13134
辈 13135
▁काफी 13136
๓๐ 13137
盤 13138
었는데 13139
해도 13140
对此 13141
のほう 13142
ание 13143
▁случае 13144
くない 13145
юсь 13146
値 13147
▁cạnh 13148
ngoài 13149
່າ 13150
แก้ 13151
کرونا 13152
八六 13153
규 13154
お母さん 13155
って言って 13156
24 13157
lum 13158
不會 13159
ест 13160
▁этих 13161
▁경제 13162
▁две 13163
찍 13164
线下 13165
飲 13166
找你 13167
在做 13168
姜 13169
角度 13170
转到 13171
のため 13172
▁bagus 13173
үр 13174
干净 13175
بھ 13176
明らかに 13177
▁прав 13178
办公室 13179
なあ 13180
现代 13181
二六 13182
ட்டா 13183
వే 13184
类似 13185
我当时 13186
▁жизни 13187
▁مت 13188
っけ 13189
享 13190
เหลือ 13191
▁삼십 13192
rak 13193
▁kayak 13194
的歌曲 13195
夏天 13196
ประตู 13197
我叫 13198
ทําร้าย 13199
下一 13200
дума 13201
▁ئىش 13202
了然后 13203
优势 13204
▁хотел 13205
पुलिस 13206
주는 13207
ника 13208
쇼 13209
旋 13210
正确 13211
让她 13212
请稍等 13213
楽し 13214
miz 13215
我那 13216
钻 13217
▁sempat 13218
魅力 13219
كۈ 13220
通话 13221
叉 13222
リア 13223
هن 13224
変化 13225
моло 13226
سان 13227
май 13228
大統領 13229
trên 13230
รู้สึก 13231
હે 13232
▁تح 13233
ందు 13234
んじゃないか 13235
出席 13236
게임 13237
人在 13238
পরি 13239
▁truy 13240
زن 13241
公開 13242
ىدۇ 13243
her 13244
三万 13245
ก็ไป 13246
पुर 13247
லை 13248
▁xo 13249
▁khỏe 13250
芸 13251
రం 13252
ทาน 13253
心配 13254
输出 13255
大きい 13256
จึง 13257
が行われ 13258
不就 13259
卡号 13260
لە 13261
asan 13262
ทิ้ง 13263
▁phó 13264
換 13265
베 13266
него 13267
牛逼 13268
শি 13269
在家里 13270
▁tiếng 13271
そうなんです 13272
riêng 13273
跟她 13274
клад 13275
ывать 13276
ก็บอกว่า 13277
ходит 13278
話題 13279
योग 13280
▁참 13281
恐怖 13282
▁trương 13283
是真的 13284
陶 13285
rus 13286
アメリカの 13287
рус 13288
开的 13289
备注 13290
mun 13291
經 13292
拡大 13293
mur 13294
ありがとう 13295
▁должны 13296
▁naik 13297
23 13298
那个我 13299
▁nếu 13300
ٲ 13301
션 13302
် 13303
竞争 13304
لف 13305
ред 13306
우리가 13307
වෙ 13308
кие 13309
思う 13310
ine 13311
疫情 13312
ud 13313
けどね 13314
нул 13315
想着 13316
毎日 13317
第五 13318
сте 13319
我给 13320
武器 13321
反而 13322
盟 13323
高的 13324
▁đồ 13325
났 13326
是是 13327
دھ 13328
こそ 13329
给到 13330
తు 13331
尝 13332
なし 13333
领域 13334
贪 13335
▁vaccine 13336
榜 13337
ヒット 13338
▁سفر 13339
塩 13340
ภายใน 13341
ထား 13342
biar 13343
有所 13344
▁लिया 13345
好评 13346
قي 13347
饰 13348
んでしょうか 13349
附 13350
今は 13351
仔细 13352
蓝色 13353
▁bakal 13354
ੈ 13355
始め 13356
польз 13357
感谢来电 13358
行動 13359
تش 13360
nếu 13361
▁کہا 13362
▁деле 13363
受伤 13364
팀 13365
yur 13366
律师 13367
今夜 13368
真心 13369
十块钱 13370
山路 13371
外地 13372
うまい 13373
sek 13374
ピン 13375
мор 13376
pay 13377
kri 13378
一口 13379
обра 13380
รอย 13381
後ろ 13382
ئا 13383
很大的 13384
▁الد 13385
meng 13386
上线 13387
แป 13388
مع 13389
Г 13390
させる 13391
ll 13392
이는 13393
可以用 13394
ハン 13395
捷 13396
면은 13397
ပြ 13398
ذا 13399
種類 13400
餐厅 13401
ப்பு 13402
呵 13403
하나 13404
就是有 13405
鹏 13406
有一点 13407
我以为 13408
ім 13409
裕 13410
这张 13411
嗨 13412
方面的 13413
这么大 13414
一个一个 13415
又不 13416
▁嗯您 13417
先生您好 13418
工业 13419
册 13420
趣 13421
ในช่วง 13422
七七 13423
航班 13424
ဒါ 13425
เดินทาง 13426
nilai 13427
食べる 13428
আমরা 13429
ઘ 13430
瞬間 13431
ôi 13432
的号码 13433
グループ 13434
法师 13435
たのは 13436
措施 13437
轻松 13438
йте 13439
したり 13440
讨厌 13441
▁đặt 13442
сад 13443
壊 13444
潘 13445
▁само 13446
底下 13447
かどうか 13448
每一 13449
đặc 13450
袖 13451
以降 13452
ации 13453
学的 13454
はある 13455
悟 13456
같은 13457
놓 13458
覚 13459
術 13460
那现在 13461
ऑ 13462
ском 13463
赖 13464
암 13465
夕 13466
добр 13467
玻璃 13468
ෝ 13469
▁ဟုတ် 13470
的样子 13471
劳动 13472
ளுக்கு 13473
黎 13474
▁giấy 13475
这个就是 13476
仅 13477
av 13478
것을 13479
તો 13480
湖南 13481
出的 13482
晴 13483
转接 13484
мон 13485
起了 13486
昨天晚上 13487
มาแล้ว 13488
▁ít 13489
反正我 13490
会在 13491
มาดู 13492
papa 13493
ောက် 13494
được 13495
▁그니까 13496
到我们 13497
毫 13498
一汽金融 13499
ปล่อย 13500
弁 13501
捐 13502
下个月 13503
決定 13504
ښ 13505
我就想 13506
▁xuống 13507
ச்ச 13508
もんね 13509
唔好 13510
▁шестьдесят 13511
극 13512
ที่เกิดขึ้น 13513
견 13514
主题 13515
喜欢吃 13516
▁어떤 13517
▁કરી 13518
此时 13519
▁사람들 13520
级别 13521
背后 13522
знач 13523
all 13524
拘 13525
投票 13526
▁tua 13527
慧 13528
mulai 13529
ちゃった 13530
ตําบล 13531
зыва 13532
той 13533
Ta 13534
မြ 13535
複 13536
娃娃 13537
▁значит 13538
гра 13539
ပါတယ်။ 13540
韩国 13541
▁nhu 13542
興 13543
人类 13544
ご紹介 13545
往往 13546
分からない 13547
不打 13548
您这边是 13549
仍然 13550
으니까 13551
いると 13552
▁않아 13553
強く 13554
不清 13555
hati 13556
我一直 13557
苏州 13558
▁человека 13559
สวน 13560
階 13561
رد 13562
敷 13563
成功了 13564
মাকে 13565
▁그렇지 13566
被告人 13567
ภัย 13568
ingiz 13569
国外 13570
▁আছে 13571
给我打电话 13572
您的这个 13573
百度 13574
負 13575
বল 13576
หยุด 13577
શે 13578
මා 13579
同埋 13580
十一号 13581
▁जाने 13582
▁pan 13583
▁data 13584
我这里 13585
势力 13586
先生吗 13587
વિ 13588
さんです 13589
rasa 13590
صف 13591
ёт 13592
姨 13593
ош 13594
下さい 13595
दे 13596
角色 13597
有几个 13598
▁కదా 13599
第三个 13600
▁بیمار 13601
▁pelaku 13602
还记得 13603
泪 13604
Bo 13605
妇 13606
つまり 13607
ဟာ 13608
要用 13609
嗰度 13610
查下 13611
来分期 13612
▁đời 13613
音楽 13614
னை 13615
ках 13616
決勝 13617
เสื้อ 13618
但我 13619
教えて 13620
บุญ 13621
ыл 13622
Te 13623
거예요 13624
ài 13625
ْ 13626
▁கொ 13627
出现了 13628
▁polisi 13629
适 13630
两个月 13631
▁कई 13632
сл 13633
تس 13634
都市 13635
尤其是 13636
by 13637
类型 13638
▁bác 13639
larning 13640
都知道 13641
坐在 13642
贤 13643
もない 13644
多年 13645
央 13646
ステ 13647
聪明 13648
ขณะที่ 13649
先月 13650
▁penye 13651
连续 13652
หรอก 13653
おか 13654
一本 13655
全是 13656
你们那个 13657
承认 13658
сол 13659
弯 13660
新区 13661
악 13662
걔 13663
ән 13664
อย 13665
跟您说 13666
上下 13667
глав 13668
กระทรวง 13669
的这些 13670
主席 13671
有空 13672
放假 13673
燃 13674
媳妇 13675
进行了 13676
فو 13677
পে 13678
ستان 13679
▁நீ 13680
哦哦 13681
되면 13682
绿色 13683
しゃ 13684
時は 13685
这一点 13686
▁barat 13687
认证 13688
рассказ 13689
ketika 13690
流行 13691
六二 13692
▁哦哦哦 13693
采访 13694
ネット 13695
vào 13696
▁chuyện 13697
对是的 13698
▁shu 13699
▁kaya 13700
ৃ 13701
黄金 13702
ئە 13703
又有 13704
처음 13705
症状 13706
你说你 13707
แยก 13708
规模 13709
gra 13710
▁kawasan 13711
兔 13712
求め 13713
эд 13714
미국 13715
ชนะ 13716
jaga 13717
聞いた 13718
அ 13719
pasti 13720
暮らし 13721
이고 13722
▁chia 13723
▁hati 13724
يف 13725
精彩 13726
мысл 13727
علم 13728
▁시작 13729
復 13730
话题 13731
셨 13732
としています 13733
번 13734
▁ruang 13735
过后 13736
фр 13737
奈 13738
کے 13739
của 13740
▁of 13741
奉 13742
脆 13743
ep 13744
災 13745
แก่ 13746
واقع 13747
เรื่องของการ 13748
閉 13749
▁wanita 13750
مین 13751
九州 13752
чин 13753
矛盾 13754
সি 13755
송 13756
▁hồi 13757
苗 13758
とした 13759
▁đâu 13760
ଫ 13761
这个的话 13762
话费 13763
牢 13764
と思った 13765
葛 13766
못 13767
跑步 13768
議員 13769
ลงไป 13770
ଇ 13771
运行 13772
就是就是 13773
องค์ 13774
คุยกับ 13775
দি 13776
▁movie 13777
▁있잖아 13778
шы 13779
咱俩 13780
ทหาร 13781
保存 13782
入れて 13783
بین 13784
▁mengalami 13785
不好意思啊 13786
湯 13787
사는 13788
メンバー 13789
▁الص 13790
वार 13791
えた 13792
くなり 13793
気になる 13794
二四 13795
悔 13796
ရာ 13797
полож 13798
開催 13799
不怕 13800
めた 13801
ုံ 13802
我告诉你 13803
吸引 13804
的产品 13805
你没 13806
似的 13807
oq 13808
膜 13809
ห้า 13810
卓 13811
dal 13812
比我 13813
農 13814
없이 13815
нут 13816
メートル 13817
エン 13818
稀 13819
ବେ 13820
カメラ 13821
都好 13822
版的 13823
립 13824
みると 13825
在你 13826
oz 13827
▁đào 13828
这个地方 13829
ন্ত 13830
なんですか 13831
шин 13832
игра 13833
场景 13834
就这 13835
怎么称呼 13836
진짜 13837
我不会 13838
刑事 13839
诸 13840
มหา 13841
ขวา 13842
価格 13843
▁thay 13844
抬 13845
▁bawah 13846
感谢您的来电 13847
保安 13848
ओं 13849
▁நீங்க 13850
္ 13851
pembe 13852
maksud 13853
▁kepala 13854
拒 13855
ake 13856
વી 13857
ลงมา 13858
อย่างที่ 13859
BA 13860
jur 13861
分かって 13862
kenapa 13863
ensi 13864
生まれ 13865
看起来 13866
tuk 13867
don 13868
そのまま 13869
做出 13870
بين 13871
▁россии 13872
▁نو 13873
เกี่ยวข้อง 13874
rek 13875
▁bosh 13876
刺激 13877
วัย 13878
ของเขา 13879
入って 13880
ໂ 13881
呢就 13882
的房子 13883
がいい 13884
大衣 13885
重视 13886
焼 13887
铜 13888
は何 13889
▁namanya 13890
존 13891
纹 13892
しましょう 13893
接種 13894
十岁 13895
పో 13896
тив 13897
ยืน 13898
ธา 13899
pp 13900
人了 13901
薪 13902
你们这个 13903
хват 13904
二九 13905
▁nặng 13906
เมื่อวานนี้ 13907
検査 13908
听过 13909
喝酒 13910
gak 13911
不大 13912
单子 13913
飘 13914
nhiều 13915
كر 13916
▁danh 13917
พิธี 13918
pikir 13919
十六号 13920
▁nghĩ 13921
帖子 13922
пере 13923
▁могут 13924
河南 13925
弾 13926
▁телефон 13927
ники 13928
明明 13929
这些东西 13930
વું 13931
▁پیش 13932
ศักดิ์ 13933
범 13934
бр 13935
илась 13936
percaya 13937
勝ち 13938
恐 13939
▁अच्छे 13940
▁اپنی 13941
ตอนที่ 13942
我相信 13943
▁tengok 13944
पु 13945
тен 13946
OK 13947
▁इतना 13948
跟你们 13949
▁membantu 13950
逛 13951
▁đẹp 13952
玛 13953
उस 13954
▁الر 13955
▁thôn 13956
医療 13957
查找 13958
யே 13959
শু 13960
挂了 13961
すいません 13962
한국 13963
대로 13964
手续 13965
жен 13966
联系方式 13967
듯 13968
هی 13969
▁tiba 13970
यु 13971
دون 13972
婆 13973
▁好的好的 13974
距離 13975
aan 13976
你讲 13977
もらって 13978
низ 13979
▁مد 13980
ชิ 13981
逮捕 13982
قۇ 13983
メン 13984
现在就 13985
完善 13986
▁program 13987
ของคุณ 13988
panjang 13989
государств 13990
ドラマ 13991
кус 13992
شه 13993
体系 13994
▁رہی 13995
ませんでした 13996
夺 13997
▁oldi 13998
▁menarik 13999
କ୍ 14000
顾问 14001
ич 14002
得好 14003
yar 14004
бл 14005
자가 14006
▁pasar 14007
แพทย์ 14008
厳しい 14009
ầm 14010
具有 14011
кто 14012
姆 14013
一定是 14014
コー 14015
到尾 14016
триста 14017
我昨天 14018
不過 14019
姚 14020
▁вами 14021
微信号 14022
▁up 14023
ंत 14024
开展 14025
がい 14026
、3 14027
侠 14028
実際に 14029
จิ 14030
初中 14031
реш 14032
xona 14033
给他们 14034
แต่ละ 14035
前期 14036
▁вся 14037
っぱ 14038
名下 14039
▁tết 14040
▁మన 14041
ลูกสาว 14042
裁判 14043
មួយ 14044
다른 14045
டா 14046
っていうこと 14047
như 14048
▁इं 14049
해주 14050
一二 14051
ປ 14052
咁你 14053
mil 14054
పా 14055
紅 14056
ਿਆ 14057
เน 14058
ိ 14059
특 14060
렸 14061
ছ 14062
jam 14063
一辆 14064
迅速 14065
▁vong 14066
ভা 14067
的这 14068
时尚 14069
참 14070
еще 14071
اگر 14072
▁тот 14073
ซี 14074
способ 14075
要把 14076
ления 14077
หวัง 14078
崩 14079
лич 14080
иль 14081
宝妈 14082
早点 14083
然后是 14084
我只是 14085
ยาย 14086
있어 14087
เข 14088
打完 14089
两种 14090
نش 14091
んじゃ 14092
的就 14093
petugas 14094
tôi 14095
▁એવું 14096
ନା 14097
社長 14098
见面 14099
โย 14100
让您 14101
▁thiếu 14102
つき 14103
para 14104
になると 14105
点解 14106
ڑی 14107
但是我们 14108
▁school 14109
拐 14110
됩니다 14111
这个电话 14112
เอาไป 14113
จีน 14114
ર્ 14115
我从 14116
名前 14117
ไม่ต้อง 14118
般 14119
推进 14120
碰到 14121
ترین 14122
してきた 14123
これも 14124
왜 14125
肺 14126
ولی 14127
▁căn 14128
他不是 14129
コロナ 14130
我好 14131
商场 14132
北朝鮮 14133
不像 14134
穿的 14135
这条 14136
翠 14137
歴史 14138
ขาด 14139
保留 14140
猴子 14141
طب 14142
となっています 14143
ติดต่อ 14144
タイム 14145
ようです 14146
শা 14147
公交车 14148
套装 14149
احت 14150
long 14151
马上就 14152
表現 14153
滋 14154
лев 14155
歹 14156
合う 14157
お願い 14158
変わって 14159
زار 14160
è 14161
敲 14162
แสน 14163
您再 14164
pil 14165
รีบ 14166
当前 14167
ची 14168
咸 14169
▁uch 14170
調べ 14171
nên 14172
เดิม 14173
很重要 14174
cơ 14175
▁哦我 14176
选项 14177
▁hoàng 14178
比例 14179
โก 14180
▁वही 14181
اي 14182
可以直接 14183
拳 14184
一下子 14185
ยังมี 14186
意見 14187
▁북한 14188
的关系 14189
帶 14190
香り 14191
टर 14192
ust 14193
ਨੂੰ 14194
치료 14195
六八 14196
スポーツ 14197
ல்ல 14198
پور 14199
的话他 14200
ล่า 14201
lawan 14202
できて 14203
보니까 14204
sah 14205
跑了 14206
larda 14207
▁thần 14208
哩 14209
책 14210
帯 14211
▁thủy 14212
हार 14213
▁belajar 14214
ఈ 14215
这边的 14216
にとって 14217
千万 14218
ี่ 14219
一台 14220
ять 14221
驾驶 14222
化的 14223
那你就 14224
apan 14225
ngay 14226
ประชุม 14227
드라 14228
یب 14229
帽子 14230
如果说您 14231
四零 14232
瞧 14233
▁lộ 14234
到时 14235
hương 14236
你得 14237
▁लड़ 14238
阻 14239
降り 14240
关机 14241
的位置 14242
▁وجہ 14243
牌子 14244
▁sesuatu 14245
一块儿 14246
長い 14247
的那些 14248
اص 14249
指摘 14250
很不错 14251
农民 14252
九六 14253
นางสาว 14254
毁 14255
监管 14256
▁лет 14257
▁bài 14258
ori 14259
давай 14260
▁ఒక 14261
栏 14262
うれしい 14263
Ko 14264
以上の 14265
人呢 14266
尊重 14267
▁जाती 14268
白天 14269
小猪佩奇 14270
てください 14271
ню 14272
आप 14273
丈夫 14274
▁खाना 14275
衡 14276
泳 14277
笑话 14278
ىنىڭ 14279
になっている 14280
ลุง 14281
周り 14282
กัด 14283
يب 14284
apalagi 14285
報告 14286
▁yaxshi 14287
故意 14288
ଧ 14289
▁ikut 14290
یں۔ 14291
救援 14292
जु 14293
함께 14294
ないように 14295
သည်။ 14296
规则 14297
长得 14298
tut 14299
令人 14300
这几天 14301
▁cakap 14302
них 14303
业主 14304
▁کرنا 14305
sum 14306
цу 14307
去去 14308
เขาบอก 14309
やってる 14310
اعت 14311
▁편 14312
▁ទៅ 14313
үн 14314
是什么呢 14315
เลิก 14316
▁诶你好 14317
ଟି 14318
去打 14319
지않 14320
和平 14321
宇宙 14322
好处 14323
분들 14324
โรค 14325
方針 14326
鑫 14327
稿 14328
웃 14329
рам 14330
估 14331
ାଇ 14332
哪有 14333
▁mema 14334
usaha 14335
诉讼 14336
หนุ่ม 14337
此次 14338
모르 14339
一起去 14340
อดีต 14341
ということなんです 14342
是什么意思 14343
乜 14344
的话那 14345
▁ဟို 14346
▁힘들 14347
کش 14348
握 14349
▁thoại 14350
就不用 14351
因为现在 14352
公交 14353
書いて 14354
▁आता 14355
になっています 14356
▁이거 14357
愈 14358
面积 14359
▁đêm 14360
모든 14361
แต่ง 14362
指导 14363
東京都 14364
的时候呢 14365
▁줄 14366
▁کرتے 14367
▁niya 14368
▁xuyên 14369
tera 14370
மை 14371
一个小 14372
要要 14373
莉 14374
▁ngay 14375
今天是 14376
はもう 14377
bộ 14378
绕 14379
在里面 14380
鸿 14381
無理 14382
优秀 14383
राम 14384
八二 14385
できます 14386
粘 14387
鼠 14388
玄 14389
そうですよね 14390
没没 14391
霞 14392
話し 14393
联系一下 14394
どの 14395
เพิ่ง 14396
如果我 14397
彭 14398
曼 14399
摔 14400
七零 14401
높 14402
濃 14403
已经是 14404
要有 14405
보는 14406
服装 14407
车主 14408
▁lĩnh 14409
刚开始 14410
ັງ 14411
因素 14412
我用 14413
сен 14414
▁دست 14415
陣 14416
降低 14417
பெ 14418
dengar 14419
有几 14420
了是吗 14421
▁memberi 14422
砸 14423
見せ 14424
大众 14425
となり 14426
桑 14427
звон 14428
心中 14429
减少 14430
low 14431
多多 14432
なくなって 14433
根本就 14434
时阵 14435
원래 14436
▁अलग 14437
ے۔ 14438
овой 14439
までの 14440
tirish 14441
宾 14442
有意思 14443
แห่ง 14444
八七 14445
編 14446
真好 14447
▁导航去 14448
哲 14449
挤 14450
▁वैसे 14451
マー 14452
▁같아요 14453
碧 14454
来る 14455
▁adanya 14456
特色 14457
र्म 14458
بى 14459
สพ 14460
採 14461
个小时 14462
它那个 14463
ect 14464
▁деньги 14465
នេះ 14466
қы 14467
ps 14468
▁top 14469
программ 14470
频道 14471
▁olish 14472
八五 14473
可以帮您 14474
mem 14475
讨 14476
大小 14477
өг 14478
看他 14479
▁we 14480
这是我 14481
▁چیز 14482
最重要的 14483
పి 14484
題 14485
最後の 14486
乃 14487
スの 14488
ยอด 14489
权利 14490
痛苦 14491
pel 14492
けない 14493
そんなに 14494
fer 14495
âu 14496
しかった 14497
没有没有没有 14498
సా 14499
走到 14500
ండి 14501
思います 14502
脂 14503
▁bây 14504
币 14505
酱 14506
قول 14507
▁penge 14508
อย่างไร 14509
相应的 14510
表演 14511
▁먹고 14512
ସ୍ 14513
坚 14514
เช่น 14515
ちょうど 14516
คุย 14517
이지 14518
郑州 14519
ダイ 14520
ออกจาก 14521
非常抱歉 14522
sti 14523
植 14524
径 14525
ごろ 14526
hari 14527
五八 14528
▁vũ 14529
全く 14530
関係者 14531
決め 14532
ایی 14533
▁года 14534
جس 14535
乾 14536
简直 14537
สื่อ 14538
▁khám 14539
▁сразу 14540
▁бер 14541
话说 14542
长大 14543
▁cuối 14544
beda 14545
幺四 14546
قرار 14547
所以你 14548
රි 14549
меня 14550
工人 14551
▁সা 14552
効果 14553
就不能 14554
ていました 14555
duk 14556
儿啊 14557
激活 14558
ระดับ 14559
▁chấp 14560
大型 14561
▁masing 14562
மி 14563
기에 14564
にする 14565
▁گھر 14566
ப்பா 14567
三七 14568
ణ 14569
这份 14570
赌 14571
teg 14572
ใช่ค่ะ 14573
끼 14574
భ 14575
▁alam 14576
вит 14577
pus 14578
大体 14579
竟 14580
▁say 14581
모두 14582
รณ 14583
▁친구 14584
发生了 14585
▁свою 14586
挑戦 14587
ମା 14588
担 14589
したこと 14590
ころ 14591
เส 14592
一方で 14593
いるんです 14594
▁должен 14595
▁like 14596
已經 14597
▁mengaku 14598
音量 14599
▁miền 14600
我问 14601
今まで 14602
ря 14603
케 14604
تك 14605
▁совет 14606
▁А 14607
忘れ 14608
暑假 14609
ょ 14610
顺利 14611
崇 14612
削 14613
双十一 14614
▁kịp 14615
ner 14616
ант 14617
ကွာ 14618
互相 14619
П 14620
貌 14621
錯 14622
追求 14623
りたい 14624
спасибо 14625
看我 14626
กลายเป็น 14627
лес 14628
برای 14629
一首 14630
没时间 14631
熬 14632
bên 14633
가격 14634
وج 14635
いけ 14636
者が 14637
しさ 14638
▁đóng 14639
あら 14640
form 14641
ມີ 14642
每个人 14643
人と 14644
突破 14645
говорил 14646
見える 14647
брать 14648
尾号 14649
tiga 14650
报案 14651
路线 14652
▁पढ़ 14653
動物 14654
丰富 14655
客人 14656
โมง 14657
वह 14658
说实话 14659
เรื่องราว 14660
สงสัย 14661
歯 14662
七年 14663
уз 14664
なんですよ 14665
一眼 14666
▁সাথে 14667
でお 14668
пожалуй 14669
出发 14670
ice 14671
长沙 14672
孟 14673
ଥିଲେ 14674
价钱 14675
rencana 14676
借款 14677
▁trò 14678
おり 14679
していて 14680
फा 14681
tish 14682
іп 14683
сэн 14684
重要的 14685
justru 14686
▁تھا 14687
クリ 14688
لات 14689
不吃 14690
ජ 14691
各个 14692
下雨 14693
ขอให้ 14694
を中心に 14695
bak 14696
にした 14697
也也 14698
署 14699
想吃 14700
▁ہوں۔ 14701
演员 14702
帐 14703
▁hỏi 14704
หรือไม่ 14705
返回 14706
兼 14707
自我 14708
어느 14709
凌 14710
▁hold 14711
情况下 14712
ỏ 14713
られている 14714
▁hữu 14715
最も 14716
्यू 14717
摊 14718
らせ 14719
你就是 14720
他那 14721
▁رکھ 14722
花了 14723
凑 14724
илось 14725
▁બી 14726
ますよ 14727
เห็นว่า 14728
频 14729
▁کوئی 14730
野球 14731
▁Mana 14732
ดีกว่า 14733
牧 14734
일단 14735
电视剧 14736
ยาก 14737
若い 14738
をした 14739
男女 14740
貴 14741
บางคน 14742
ッシュ 14743
んだよね 14744
▁싶어 14745
こうやって 14746
▁tân 14747
失去 14748
的发展 14749
лом 14750
ประกาศ 14751
สภา 14752
?」 14753
บรร 14754
だが 14755
หลังจากที่ 14756
罐 14757
贺 14758
lia 14759
زم 14760
ۇش 14761
onal 14762
▁понял 14763
谁呀 14764
▁hiểu 14765
一节 14766
вяз 14767
ishga 14768
ジェ 14769
有的时候 14770
しよう 14771
รม 14772
人头 14773
▁कह 14774
正是 14775
▁pula 14776
三八 14777
▁देखा 14778
ச்சு 14779
๐๐บาท 14780
かね 14781
เลยครับ 14782
春节 14783
도록 14784
さい 14785
打不过 14786
▁जान 14787
حي 14788
▁segera 14789
▁lâm 14790
▁berjalan 14791
▁будем 14792
やか 14793
▁کنم 14794
三六 14795
机器人 14796
負け 14797
шла 14798
keun 14799
嘅话 14800
现在这个 14801
伺 14802
80 14803
颗 14804
操你妈 14805
어떤 14806
sampai 14807
互动 14808
ਇ 14809
▁nhật 14810
老子 14811
使う 14812
밀 14813
更好的 14814
그러 14815
ẩn 14816
▁நல்லா 14817
стой 14818
сла 14819
識 14820
쉬 14821
▁kenapa 14822
제품 14823
和他 14824
楼下 14825
ଓ 14826
จอด 14827
それに 14828
▁kena 14829
यू 14830
ジュ 14831
จะมา 14832
就想 14833
이라는 14834
▁maka 14835
面白い 14836
ью 14837
رق 14838
我看看 14839
টে 14840
нии 14841
ดํา 14842
特别是 14843
更换 14844
гийн 14845
ท้าย 14846
овал 14847
▁niên 14848
るんだ 14849
做这个 14850
스트 14851
培养 14852
택 14853
্ব 14854
ái 14855
リーグ 14856
사진 14857
▁चाह 14858
boy 14859
▁kadang 14860
राज 14861
кт 14862
逗 14863
ศาล 14864
সু 14865
自己去 14866
ผู้ต้องหา 14867
钥匙 14868
分别 14869
動か 14870
зов 14871
▁phạt 14872
チョ 14873
пов 14874
不是有 14875
まい 14876
したと 14877
赶快 14878
ระยะ 14879
一趟 14880
▁thật 14881
দ্ 14882
袁 14883
基地 14884
租赁 14885
بە 14886
્ય 14887
sep 14888
▁لگ 14889
ূ 14890
pek 14891
▁anggota 14892
把握 14893
又不是 14894
얘 14895
亲爱的 14896
就很 14897
وری 14898
用意 14899
人士 14900
かく 14901
▁जाना 14902
屏幕 14903
рос 14904
dapat 14905
要到 14906
รู้จัก 14907
▁sông 14908
連絡 14909
уш 14910
手段 14911
的先生 14912
ىرى 14913
тол 14914
说要 14915
作った 14916
thế 14917
恰 14918
ブラ 14919
覆 14920
下降 14921
▁mampu 14922
үй 14923
不用不用 14924
りとか 14925
방법 14926
阶 14927
被人 14928
lama 14929
上路 14930
ก่อนหน้านี้ 14931
她是 14932
可以看到 14933
▁ئال 14934
大桥 14935
wo 14936
аны 14937
еть 14938
लू 14939
三次 14940
他没有 14941
하네요 14942
पर् 14943
出去了 14944
عت 14945
验证码 14946
時の 14947
habis 14948
يك 14949
赠 14950
很好的 14951
▁tức 14952
▁sistem 14953
bas 14954
ックス 14955
▁कैसे 14956
بہ 14957
难受 14958
推广 14959
層 14960
▁sosial 14961
我就说 14962
都不知道 14963
看了一下 14964
les 14965
的部分 14966
▁дорог 14967
▁చె 14968
唔会 14969
惹 14970
就这个 14971
有机会 14972
的是吗 14973
یٹ 14974
ында 14975
▁उसे 14976
成長 14977
是比较 14978
別の 14979
万元 14980
厝 14981
を迎え 14982
кру 14983
也都 14984
▁आया 14985
▁понимаю 14986
써 14987
元気 14988
你个 14989
言われて 14990
తా 14991
青春 14992
郊 14993
住在 14994
課 14995
▁berat 14996
ต์ 14997
どうですか 14998
yer 14999
などに 15000
결혼 15001
phone 15002
လား 15003
hasil 15004
載 15005
肯定会 15006
दर 15007
억 15008
▁phổ 15009
到您的 15010
拥 15011
才有 15012
แอ 15013
脑子 15014
你看看 15015
就不会 15016
卖家 15017
▁ngoại 15018
霜 15019
还需要 15020
되지 15021
ပေး 15022
▁पड़ 15023
途中 15024
他又 15025
ত্র 15026
够了 15027
斑 15028
填写 15029
ृ 15030
が入って 15031
那那个 15032
退票 15033
ác 15034
▁bicara 15035
剩下 15036
家の 15037
wah 15038
▁সময় 15039
21 15040
แน่ 15041
那你们 15042
いえ 15043
โม 15044
退保 15045
开启 15046
相談 15047
安定 15048
靓 15049
世代 15050
總 15051
ях 15052
▁قال 15053
无所谓 15054
▁thiên 15055
▁mencari 15056
ведь 15057
内心 15058
ドル 15059
锻炼 15060
换个 15061
玩了 15062
енные 15063
感冒 15064
してた 15065
▁दोस्त 15066
多く 15067
我想要 15068
推出 15069
上市 15070
维护 15071
SNS 15072
进了 15073
▁phúc 15074
致电 15075
ତା 15076
▁tao 15077
มอบ 15078
▁badan 15079
温泉 15080
炉 15081
堆 15082
臣 15083
▁પર 15084
▁utama 15085
좋 15086
掌握 15087
どっち 15088
淮 15089
ora 15090
상황 15091
ยืนยัน 15092
เชื่อว่า 15093
તી 15094
ăn 15095
赔偿 15096
会議 15097
ပေါ့ 15098
tum 15099
ไปที่ 15100
軍事 15101
صرف 15102
我怕 15103
овская 15104
给我放 15105
उसने 15106
消费者 15107
有什么问题 15108
เนื้อ 15109
教学 15110
▁газ 15111
等会 15112
强调 15113
हरु 15114
வை 15115
สวย 15116
就先 15117
▁пути 15118
很高 15119
લે 15120
我发现 15121
鼓励 15122
严格 15123
村民 15124
唯 15125
Н 15126
特别的 15127
穴 15128
গা 15129
領 15130
很多的 15131
ём 15132
痕 15133
总部 15134
我认为 15135
ਉ 15136
गो 15137
蛋糕 15138
创造 15139
整理 15140
иде 15141
phát 15142
AAA 15143
tel 15144
เอามา 15145
心态 15146
ても 15147
iyat 15148
ランド 15149
ହା 15150
ずに 15151
体制 15152
应当 15153
เส้น 15154
слуша 15155
ดวง 15156
观点 15157
생활 15158
पर 15159
どうして 15160
었어 15161
跟住 15162
แค 15163
▁នៅ 15164
ถามว่า 15165
indah 15166
옷 15167
老鼠 15168
ড় 15169
กลับไป 15170
ທີ່ 15171
人数 15172
▁kejadian 15173
伐 15174
抄 15175
缴费 15176
▁trì 15177
妈的 15178
数量 15179
▁chơi 15180
这一次 15181
вели 15182
样子 15183
▁يې 15184
ằ 15185
そういうこと 15186
後に 15187
年纪 15188
公平 15189
都都 15190
いう 15191
익 15192
不见 15193
すぎ 15194
ؤ 15195
▁thác 15196
زي 15197
分手 15198
可以吧 15199
ண்டு 15200
发到 15201
你有没有 15202
啊就 15203
ができる 15204
接近 15205
イベント 15206
▁لئے 15207
noise 15208
지도 15209
숙 15210
เตือน 15211
めちゃくちゃ 15212
尘 15213
mau 15214
开关 15215
لق 15216
粮 15217
现在在 15218
不成 15219
那也 15220
dor 15221
침 15222
เมีย 15223
عام 15224
배우 15225
绒 15226
sil 15227
▁мой 15228
北京市 15229
เลือด 15230
ì 15231
▁ငါ 15232
wang 15233
ண்ட 15234
▁tấn 15235
aj 15236
有啥 15237
▁sering 15238
ที่มา 15239
ສະ 15240
แตก 15241
리를 15242
家己 15243
查询一下 15244
коло 15245
мент 15246
رض 15247
はね 15248
kata 15249
截图 15250
bal 15251
จร 15252
ဟ 15253
罚 15254
ຽ 15255
拍摄 15256
داری 15257
杀了 15258
인지 15259
何も 15260
gue 15261
柏 15262
▁desa 15263
見え 15264
acara 15265
最近的 15266
ោះ 15267
▁suara 15268
▁укра 15269
тридцать 15270
人民币 15271
否则 15272
世界上 15273
رت 15274
当たり 15275
依法 15276
득 15277
想起 15278
公众号 15279
阿里 15280
的话它 15281
ホームラン 15282
お父さん 15283
把自己 15284
уже 15285
入れる 15286
ต้องการ 15287
ភ 15288
욕 15289
叫你 15290
年轻人 15291
对应的 15292
本案 15293
kala 15294
かわいい 15295
智慧 15296
欣赏 15297
効 15298
臨 15299
▁lê 15300
游泳 15301
攻击 15302
ଛନ୍ତି 15303
кстати 15304
▁sepuluh 15305
店里 15306
▁mumkin 15307
才可以 15308
鉄 15309
چار 15310
付き 15311
Mu 15312
ダメ 15313
一直都 15314
ật 15315
잠 15316
干部 15317
叔叔 15318
結局 15319
五二 15320
ောင် 15321
▁kỹ 15322
出身 15323
شهر 15324
شار 15325
rita 15326
丢了 15327
▁dưới 15328
▁নিয়ে 15329
通り 15330
观众 15331
ډ 15332
手里 15333
文明 15334
อยู่กับ 15335
▁sớm 15336
▁tanah 15337
idan 15338
主人 15339
的客户 15340
几百 15341
Ha 15342
▁வேற 15343
▁보고 15344
還有 15345
يه 15346
涉 15347
質問 15348
抚 15349
▁работа 15350
寨 15351
cinta 15352
给自己 15353
看一看 15354
င့် 15355
▁diba 15356
โทรศัพท์ 15357
周五 15358
このように 15359
зе 15360
轨 15361
一辈子 15362
부분 15363
เนี่ยนะคะ 15364
型号 15365
都冇 15366
▁아니야 15367
▁thấp 15368
南部 15369
的老师 15370
मैंने 15371
咱们的 15372
หลังจากนั้น 15373
られています 15374
テーマ 15375
проезд 15376
女孩子 15377
ตุ 15378
ซึ่งเป็น 15379
ара 15380
那这边的话 15381
山区 15382
找找 15383
第二次 15384
꼭 15385
tt 15386
ตร 15387
乗り 15388
dur 15389
うんうん 15390
三是 15391
லு 15392
我以前 15393
Na 15394
しっかりと 15395
let 15396
gawa 15397
ரம் 15398
出した 15399
▁chỗ 15400
我的意思 15401
สังคม 15402
深刻 15403
еб 15404
我靠 15405
这个时间 15406
泣 15407
使用的 15408
报一下 15409
टि 15410
跡 15411
ຢ 15412
柴 15413
不明白 15414
石头 15415
peng 15416
找到了 15417
另一个 15418
に行く 15419
可能就 15420
حکومت 15421
高度 15422
කි 15423
找一个 15424
▁అని 15425
开会 15426
チャンス 15427
所在 15428
অ 15429
还挺 15430
うちの 15431
uhan 15432
总结 15433
డం 15434
他们都 15435
ội 15436
すでに 15437
几号 15438
harusnya 15439
fat 15440
扩 15441
しても 15442
Di 15443
做得 15444
好玩 15445
舒 15446
这句话 15447
中文 15448
によると 15449
เลือกตั้ง 15450
енный 15451
ван 15452
ulang 15453
දි 15454
▁ஆனா 15455
すぐに 15456
မှု 15457
Ang 15458
▁yangi 15459
믄 15460
なに 15461
▁semuanya 15462
とおり 15463
冯 15464
论坛 15465
แล้วนะคะ 15466
풀 15467
匹 15468
▁ரொம்ப 15469
iran 15470
तु 15471
ライン 15472
sun 15473
وح 15474
wakil 15475
ภ 15476
▁chiếm 15477
六九 15478
还了 15479
ంటే 15480
กรม 15481
女童 15482
泊 15483
ฟ้า 15484
発見 15485
虹 15486
おっ 15487
▁알아 15488
雑 15489
收拾 15490
ster 15491
促 15492
报销 15493
娱乐 15494
ですかね 15495
耀 15496
mba 15497
ましたが 15498
pet 15499
ۇر 15500
yon 15501
стер 15502
畅 15503
كن 15504
ونه 15505
teng 15506
masuk 15507
ỡ 15508
ضا 15509
별로 15510
いいですね 15511
頑張って 15512
付出 15513
篇 15514
雾 15515
澤 15516
隣 15517
单独 15518
ありました 15519
โร 15520
وٹ 15521
解放 15522
важно 15523
▁हम्म 15524
ொ 15525
認め 15526
گاه 15527
帮他 15528
ически 15529
Li 15530
โห 15531
럽 15532
▁бес 15533
ика 15534
ەن 15535
京都 15536
直到 15537
证券 15538
の話 15539
然后的话 15540
外国 15541
就不要 15542
▁жизнь 15543
یز 15544
жем 15545
▁new 15546
所谓的 15547
میری 15548
容疑者は 15549
▁ito 15550
滞 15551
вести 15552
สถานการณ์ 15553
江西 15554
を受けて 15555
陸 15556
見ると 15557
别人的 15558
あー 15559
ਵਾ 15560
мол 15561
นคร 15562
发个 15563
车牌号 15564
东北 15565
十二号 15566
ං 15567
新鲜 15568
යේ 15569
指定 15570
鹅 15571
敌 15572
▁real 15573
贼 15574
один 15575
祝您 15576
An 15577
我们去 15578
シュ 15579
điều 15580
buru 15581
پى 15582
喜歡 15583
▁publik 15584
ମ୍ 15585
▁பண்ணி 15586
สอน 15587
鲁班 15588
บท 15589
之间的 15590
కో 15591
新款 15592
診 15593
本期 15594
っか 15595
र्ट 15596
аш 15597
लेकिन 15598
踩 15599
▁الذي 15600
年生 15601
▁стороны 15602
依家 15603
เก่า 15604
它会 15605
生态 15606
겠지 15607
шки 15608
คนหนึ่ง 15609
প্র 15610
sto 15611
聞 15612
现在就是 15613
っちゃった 15614
滩 15615
ंक 15616
дель 15617
จา 15618
我帮你 15619
っちゃう 15620
车站 15621
湘 15622
厳 15623
่ว 15624
赏 15625
ทําอะไร 15626
这件事情 15627
▁呃对 15628
िए 15629
사랑 15630
▁nền 15631
的结果 15632
センター 15633
얼 15634
ไปถึง 15635
体现 15636
实力 15637
込む 15638
给到您 15639
дж 15640
দেশ 15641
ḍ 15642
지고 15643
ော် 15644
施工 15645
▁ત્યાં 15646
▁دیا 15647
这个账号 15648
ทร 15649
而言 15650
êm 15651
到处 15652
пад 15653
就是这样 15654
核对 15655
ってくる 15656
프로 15657
හි 15658
ウン 15659
▁tau 15660
环节 15661
有两 15662
តែ 15663
スーパー 15664
记一下 15665
的一种 15666
好几 15667
▁wilayah 15668
ไก่ 15669
حت 15670
之中 15671
អ 15672
ยังคง 15673
ໄດ້ 15674
দিন 15675
屯 15676
кова 15677
兑换 15678
戦争 15679
ஃப 15680
这件事 15681
▁buổi 15682
받아 15683
คณะ 15684
あん 15685
改签 15686
▁जगह 15687
応援 15688
轩 15689
ビー 15690
何を 15691
换一个 15692
子里 15693
сел 15694
るように 15695
တော် 15696
牛肉 15697
▁bé 15698
扣了 15699
姑 15700
的对吧 15701
抜け 15702
สู้ 15703
ồng 15704
క్ 15705
十九号 15706
向け 15707
待ち 15708
わず 15709
▁chạy 15710
सु 15711
ノー 15712
瀬 15713
hang 15714
▁wala 15715
クロ 15716
▁sisi 15717
问题是 15718
可是我 15719
دىكى 15720
▁என் 15721
듣 15722
▁تھے۔ 15723
一分钟 15724
ско 15725
▁wong 15726
忧 15727
ắt 15728
周围 15729
లా 15730
陽 15731
搵 15732
▁trans 15733
нан 15734
существ 15735
我真 15736
読 15737
▁nuôi 15738
里有 15739
ভাবে 15740
単 15741
ရေး 15742
дол 15743
什么叫 15744
จํานวน 15745
资产 15746
刮 15747
完美 15748
ями 15749
알려 15750
▁अच्छाई 15751
한다고 15752
coba 15753
桐 15754
▁चीज 15755
кет 15756
风景 15757
只不过 15758
菊 15759
最喜欢 15760
уул 15761
筹 15762
служ 15763
怎么能 15764
стар 15765
ちなみに 15766
▁thiện 15767
つい 15768
に対し 15769
꺼 15770
起床 15771
邮寄 15772
逆に 15773
яр 15774
сорок 15775
ข้าม 15776
Mi 15777
やん 15778
内で 15779
다면 15780
警視庁 15781
全都 15782
đó 15783
单词 15784
▁pulang 15785
一分 15786
大大 15787
河北 15788
竞 15789
怖い 15790
大招 15791
▁सभी 15792
先去 15793
込 15794
▁дома 15795
▁یک 15796
๒๕ 15797
不信 15798
สอบสวน 15799
смотрите 15800
説 15801
ива 15802
定位 15803
應 15804
新村 15805
قات 15806
呼吸 15807
▁membawa 15808
始めた 15809
बर 15810
认可 15811
思い出 15812
的手机号 15813
指示 15814
▁menteri 15815
кая 15816
在北京 15817
▁maupun 15818
▁哎您好 15819
цев 15820
浸 15821
机制 15822
હી 15823
生物 15824
▁style 15825
mang 15826
ਆ 15827
完毕 15828
果然 15829
结束了 15830
賀 15831
ตกลง 15832
енных 15833
是否有 15834
isasi 15835
gol 15836
ỗ 15837
元的 15838
禁止 15839
하시 15840
近い 15841
▁sâu 15842
လိုက် 15843
▁الخ 15844
이어 15845
もらう 15846
ہا 15847
ldi 15848
萧 15849
就是说您 15850
有一天 15851
公布 15852
บาดเจ็บ 15853
▁dõi 15854
钓鱼 15855
说那个 15856
葬 15857
하니까 15858
сн 15859
形象 15860
之下 15861
となって 15862
方も 15863
▁tương 15864
ضر 15865
ซิ 15866
杉 15867
تہ 15868
혈 15869
كون 15870
क्षा 15871
替え 15872
เนี้ย 15873
ыг 15874
▁bank 15875
什 15876
六五 15877
chính 15878
期間 15879
岸田総理 15880
商城 15881
이거 15882
下来了 15883
්‍ය 15884
还有那个 15885
▁thiệt 15886
教师 15887
▁전화 15888
คําถาม 15889
的机会 15890
کول 15891
cm 15892
▁될 15893
呃那个 15894
ັກ 15895
▁사람들이 15896
دۇ 15897
บรรยากาศ 15898
thực 15899
铁路 15900
云南 15901
▁ئۆز 15902
卧 15903
ඉ 15904
を示 15905
нова 15906
床上 15907
不晓得 15908
گى 15909
пон 15910
司法 15911
祸 15912
时期 15913
ーター 15914
오는 15915
ធ 15916
ึก 15917
家具 15918
ాలి 15919
此事 15920
▁thảo 15921
你能不能 15922
cái 15923
▁इ 15924
描述 15925
中介 15926
yaitu 15927
▁ఇంకా 15928
的衣服 15929
คนอื่น 15930
证书 15931
daya 15932
โน 15933
交给 15934
匹配 15935
だい 15936
▁kendaraan 15937
сек 15938
uz 15939
イギリス 15940
جي 15941
검 15942
用这个 15943
گل 15944
탈 15945
느낌 15946
중에 15947
来て 15948
sk 15949
えば 15950
的时候就 15951
清楚了 15952
นี 15953
아주 15954
▁લોકો 15955
чик 15956
对我的 15957
▁khoản 15958
radi 15959
產 15960
你们是 15961
トリ 15962
▁शादी 15963
теле 15964
กิ 15965
▁khỏi 15966
овский 15967
如果没有 15968
rgan 15969
不太好 15970
thời 15971
改めて 15972
▁हूं 15973
公安 15974
▁mak 15975
或许 15976
▁vốn 15977
принима 15978
здоров 15979
Saya 15980
가서 15981
恶心 15982
гал 15983
家伙 15984
也太 15985
सू 15986
驚 15987
tiếp 15988
砖 15989
能量 15990
とともに 15991
ัญ 15992
敵 15993
トラ 15994
اری 15995
移動 15996
ヨ 15997
空気 15998
оль 15999
富士 16000
▁kuat 16001
成熟 16002
떨어 16003
그렇게 16004
感兴趣 16005
nama 16006
muncul 16007
tari 16008
孩子们 16009
慈 16010
打印 16011
了解了 16012
就已经 16013
マーク 16014
เกม 16015
あげ 16016
কিছু 16017
阿拉 16018
場合は 16019
首都 16020
之前有 16021
处罚 16022
收取 16023
움 16024
可怜 16025
ระบบ 16026
冻结 16027
▁можете 16028
ấp 16029
ဂ 16030
чуть 16031
టు 16032
우리는 16033
ਹਾ 16034
六个 16035
ड् 16036
chỉ 16037
豆腐 16038
だと思う 16039
类的 16040
机票 16041
анд 16042
ਈ 16043
退了 16044
नु 16045
ชัดเจน 16046
▁동안 16047
規 16048
▁খুব 16049
▁mùa 16050
▁ପ୍ର 16051
华为 16052
等下 16053
八三 16054
보여 16055
東西 16056
총 16057
стре 16058
这边呢 16059
るから 16060
这么一个 16061
勉強 16062
周辺 16063
謝 16064
都不会 16065
としても 16066
กํา 16067
الي 16068
舌 16069
专业的 16070
حص 16071
寻找 16072
పు 16073
ếu 16074
ง่าย 16075
ద్ద 16076
ขอบคุณ 16077
飛び 16078
▁тех 16079
合肥 16080
terutama 16081
かかる 16082
交了 16083
听不懂 16084
▁उसका 16085
▁mendapat 16086
그러나 16087
涵 16088
र्ड 16089
mir 16090
見えて 16091
تعلیم 16092
想说 16093
ាំ 16094
কো 16095
지를 16096
百万 16097
データ 16098
▁रहता 16099
▁perempuan 16100
▁आए 16101
মু 16102
京东 16103
▁timur 16104
▁哼 16105
ۇرۇ 16106
In 16107
买个 16108
시는 16109
хар 16110
넣 16111
対象 16112
いきたい 16113
ทุกอย่าง 16114
셔 16115
爱人 16116
続ける 16117
ホテル 16118
七五 16119
すべて 16120
▁ô 16121
素质 16122
营销 16123
キュ 16124
高考 16125
昏 16126
олог 16127
的方法 16128
▁आपके 16129
농 16130
gimana 16131
异常 16132
▁제일 16133
غر 16134
勝利 16135
默 16136
시면 16137
harga 16138
他都 16139
▁хоёр 16140
▁ổn 16141
办的 16142
dong 16143
たちの 16144
chủ 16145
炭 16146
ээр 16147
홍 16148
주고 16149
밌 16150
后悔 16151
たちは 16152
治療 16153
نز 16154
的数据 16155
▁начина 16156
江苏 16157
箭 16158
删除 16159
ü 16160
融资 16161
小孩子 16162
▁chọn 16163
この日 16164
แนว 16165
পার 16166
ห้าม 16167
쓰 16168
มาถึง 16169
两位 16170
二十四小时 16171
天然 16172
نڈ 16173
движ 16174
赠送 16175
▁juta 16176
чувств 16177
感动 16178
ation 16179
始终 16180
手上 16181
スタ 16182
好听 16183
▁ہوا 16184
▁memba 16185
روس 16186
トン 16187
ходил 16188
来着 16189
ザー 16190
앞 16191
uvchi 16192
폭 16193
пут 16194
られました 16195
一个小时 16196
ゆっくり 16197
그래 16198
为你 16199
ごと 16200
▁월 16201
슬 16202
▁ਕਿ 16203
чего 16204
สะ 16205
ସି 16206
扑 16207
垂 16208
▁turun 16209
수는 16210
세요 16211
기로 16212
образ 16213
กันมา 16214
ମି 16215
上がる 16216
วร 16217
▁nhìn 16218
再び 16219
▁இரு 16220
였다 16221
던데 16222
సం 16223
نک 16224
播放一首 16225
▁આવે 16226
已经有 16227
监督 16228
زه 16229
细节 16230
关键是 16231
स्प 16232
하루 16233
砍 16234
穿着 16235
กล้า 16236
せん 16237
卖了 16238
最後に 16239
んですけども 16240
警察は 16241
▁करो 16242
的事儿 16243
鉴定 16244
▁sila 16245
没有收到 16246
足球 16247
ถูกต้อง 16248
抹 16249
从小 16250
나서 16251
▁далее 16252
在于 16253
競 16254
價 16255
巾 16256
عب 16257
メディア 16258
防止 16259
ိုက် 16260
แล้วนะ 16261
sida 16262
电池 16263
โต 16264
なければ 16265
跟您联系 16266
王子 16267
လူ 16268
小时候 16269
卢 16270
楽しい 16271
클 16272
妥 16273
住民 16274
чки 16275
是由 16276
体験 16277
サービス 16278
ศาสตร์ 16279
ping 16280
一般的 16281
ович 16282
▁تھی۔ 16283
福州 16284
爱你 16285
ự 16286
打到 16287
儿了 16288
信任 16289
mad 16290
你这样 16291
之後 16292
全部都 16293
깨 16294
夫人 16295
这家 16296
ભા 16297
ven 16298
ड़े 16299
vaksin 16300
mini 16301
▁말이 16302
▁berbeda 16303
▁говорить 16304
特徴 16305
佰仟公司 16306
准确 16307
とにかく 16308
一节课 16309
▁bước 16310
กันหน่อย 16311
ဘူး။ 16312
gh 16313
妹子 16314
分开 16315
七千 16316
かれて 16317
af 16318
500 16319
▁کشور 16320
涉及到 16321
หาร 16322
なか 16323
แล้วนะครับ 16324
த் 16325
确保 16326
能看到 16327
拍照 16328
ดําเนินคดี 16329
将军 16330
एक 16331
寄せ 16332
▁bí 16333
別に 16334
と一緒に 16335
可能就是 16336
▁उप 16337
一樣 16338
樹 16339
만들어 16340
评论 16341
hor 16342
чит 16343
▁счита 16344
沈阳 16345
战略 16346
違い 16347
况 16348
▁xúc 16349
还想 16350
▁இருந்து 16351
幫 16352
▁benda 16353
▁बाहर 16354
ş 16355
▁वाला 16356
左边 16357
发给我 16358
بط 16359
に戻 16360
มากกว่า 16361
だよね 16362
ก็มา 16363
小白 16364
ということは 16365
หน้าที่ 16366
谢谢你啊 16367
사를 16368
됐다 16369
間に 16370
આ 16371
нию 16372
老大 16373
铃 16374
ニー 16375
▁iba 16376
へえ 16377
▁گا۔ 16378
今度は 16379
▁ਕਰ 16380
▁emas 16381
ลุก 16382
书记 16383
狙 16384
翼 16385
▁юм 16386
四四 16387
belum 16388
蚂蚁 16389
いきましょう 16390
かけて 16391
уль 16392
有什么事 16393
โล 16394
不停 16395
న్నారు 16396
不做 16397
这张卡 16398
车上 16399
过来了 16400
퍼 16401
其次 16402
暑さ 16403
揭 16404
便利 16405
ਸੀ 16406
会場 16407
ここから 16408
レス 16409
غير 16410
っていく 16411
気に 16412
的话可以 16413
หมู่บ้าน 16414
▁गर्न 16415
お伝えします 16416
没有关系 16417
介绍一下 16418
ลูกค้า 16419
22 16420
制造 16421
两只 16422
จังหวะ 16423
我爱你 16424
满了 16425
ති 16426
スク 16427
стр 16428
▁kể 16429
为主 16430
বো 16431
unan 16432
페 16433
два 16434
的要求 16435
三九 16436
▁ਹੋ 16437
終わり 16438
把钱 16439
ண்ண 16440
カル 16441
それでも 16442
sampeyan 16443
ทรง 16444
▁своей 16445
どちら 16446
ไกล 16447
있다 16448
買い 16449
ား 16450
男式 16451
革命 16452
rong 16453
เขต 16454
▁thúc 16455
扭 16456
▁ương 16457
辰 16458
يح 16459
朝阳 16460
特点 16461
即係 16462
نج 16463
70 16464
福利 16465
养老 16466
ปรา 16467
ించ 16468
ầu 16469
輪 16470
来做 16471
厨房 16472
시장 16473
itas 16474
我们这边是 16475
আজ 16476
କି 16477
るのか 16478
ประกอบ 16479
の影響で 16480
民主 16481
▁সব 16482
▁ហើយ 16483
更是 16484
ポー 16485
อีกหนึ่ง 16486
通信 16487
▁pul 16488
篮球 16489
머리 16490
▁거지 16491
体を 16492
你今天 16493
收藏 16494
▁tù 16495
立刻 16496
hello 16497
인가 16498
▁આવ 16499
kg 16500
성이 16501
人寿 16502
uyên 16503
ছিলেন 16504
гру 16505
walaupun 16506
hy 16507
看到的 16508
推塔 16509
land 16510
ควร 16511
ื้อ 16512
好好的 16513
▁mại 16514
एं 16515
рат 16516
труд 16517
往下 16518
▁video 16519
ыш 16520
マスク 16521
บู 16522
都得 16523
حة 16524
而不是 16525
นั่นแหละ 16526
买车 16527
点了 16528
るような 16529
سلام 16530
ුව 16531
很简单 16532
南昌 16533
に向けて 16534
กําลังใจ 16535
꿈 16536
手が 16537
奖励 16538
นายกรัฐมนตรี 16539
▁peme 16540
再说吧 16541
秋冬 16542
力度 16543
รุ่น 16544
是怎么回事 16545
انہوں 16546
展開 16547
เลยนะครับ 16548
政権 16549
វ 16550
噻 16551
小学生 16552
โดยเฉพาะ 16553
处理的 16554
ими 16555
报了 16556
还是有 16557
がこの 16558
打个电话 16559
请您稍等 16560
比你 16561
เรียกว่า 16562
純 16563
変わり 16564
▁হয়েছে 16565
▁nge 16566
クラ 16567
的時候 16568
被保险人 16569
▁biz 16570
残り 16571
инг 16572
가지구 16573
ワイ 16574
ящ 16575
停车 16576
処 16577
▁समझ 16578
▁номер 16579
돈 16580
例子 16581
붙 16582
するのは 16583
高铁 16584
있어요 16585
▁другой 16586
一零 16587
責任 16588
ด้วยนะครับ 16589
面临 16590
递 16591
涂 16592
市で 16593
年底 16594
इसलिए 16595
работать 16596
क्स 16597
済 16598
只需要 16599
留意 16600
▁digunakan 16601
тик 16602
แบบว่า 16603
見事 16604
정부 16605
แต่ก็ 16606
▁virus 16607
ช่อง 16608
いいですか 16609
一方面 16610
沙发 16611
ىي 16612
美食 16613
ศูนย์ 16614
营养 16615
実際 16616
আপনার 16617
ыми 16618
てた 16619
ทุน 16620
مز 16621
你说什么 16622
五幺 16623
වා 16624
จากนั้น 16625
▁சரி 16626
бар 16627
ไปหา 16628
ワクチン 16629
笨蛋 16630
考える 16631
摘 16632
▁канал 16633
했던 16634
后边 16635
▁हमें 16636
本地 16637
▁nóng 16638
たん 16639
demikian 16640
kong 16641
談 16642
baba 16643
ປະ 16644
▁motor 16645
っていうか 16646
สอบ 16647
일을 16648
는지 16649
建物 16650
ږ 16651
承诺 16652
▁सुन 16653
询问 16654
堪 16655
분이 16656
మి 16657
wit 16658
逻辑 16659
緩 16660
▁phù 16661
▁बढ़ 16662
の姿 16663
不需要了 16664
ាក់ 16665
фон 16666
봉 16667
ครั้งนี้ 16668
เชิญ 16669
तपाईं 16670
▁करती 16671
風が 16672
樂 16673
ड़ा 16674
辦 16675
▁meninggal 16676
刷卡 16677
几个月 16678
реб 16679
tgan 16680
右边 16681
ভি 16682
所以他 16683
роз 16684
탄 16685
ว่าเป็น 16686
卸 16687
meski 16688
遅 16689
정말 16690
▁ថា 16691
ថ 16692
ර් 16693
门店 16694
สี่ 16695
sebelum 16696
周日 16697
នា 16698
मुझे 16699
开门 16700
一面 16701
য়া 16702
了多少 16703
我还没 16704
英国 16705
我希望 16706
гре 16707
什么时间 16708
小说 16709
langkah 16710
良い 16711
▁hotel 16712
見る 16713
▁বলে 16714
เหนือ 16715
对比 16716
处于 16717
آخر 16718
▁ఇప్పుడు 16719
ера 16720
▁वाली 16721
이미 16722
信心 16723
bul 16724
สาเหตุ 16725
识别 16726
▁produk 16727
單 16728
湖北 16729
య్య 16730
選手の 16731
เตอร์ 16732
▁gắn 16733
사람들 16734
母親 16735
使って 16736
在哪个 16737
贫 16738
一杯 16739
てくれ 16740
授权 16741
ทั้งสอง 16742
থ 16743
原本 16744
bersih 16745
พบว่า 16746
者は 16747
прям 16748
раст 16749
قدر 16750
んじゃないかな 16751
졌다 16752
だろ 16753
फोन 16754
大学生 16755
▁big 16756
笔记本 16757
চে 16758
मु 16759
▁terlihat 16760
цвет 16761
充电 16762
세계 16763
ปุ๊บ 16764
とかも 16765
足够 16766
▁কাজ 16767
他可能 16768
健身 16769
出てくる 16770
ពេ 16771
ढ़ 16772
虽 16773
หมู 16774
lek 16775
ਨਾ 16776
ူး 16777
▁sắc 16778
▁kéo 16779
就是嗯 16780
早餐 16781
汽车站 16782
▁Indonesia 16783
ほぼ 16784
십일 16785
让孩子 16786
きている 16787
に行って 16788
선생님 16789
خی 16790
बो 16791
能否 16792
hen 16793
ajar 16794
сейчас 16795
合格 16796
ரும் 16797
িয়ে 16798
▁siang 16799
荡 16800
哈哈哈 16801
මේ 16802
奴 16803
几个人 16804
out 16805
不管是 16806
改造 16807
같이 16808
时间是 16809
กรุงเทพ 16810
▁گئی 16811
れている 16812
我这边的话 16813
南站 16814
十三号 16815
难度 16816
▁kiri 16817
ખા 16818
ブル 16819
愁 16820
いま 16821
ทา 16822
揚げ 16823
所谓 16824
上面的 16825
進め 16826
ড়ি 16827
లేదు 16828
라도 16829
其他人 16830
房价 16831
悬 16832
览 16833
協力 16834
打过 16835
තු 16836
效率 16837
といわれ 16838
祝福 16839
ең 16840
▁பொ 16841
bing 16842
▁شۇ 16843
保暖 16844
получа 16845
市内 16846
在此 16847
▁சொல்ல 16848
泄 16849
▁Note 16850
▁mengambil 16851
福建 16852
▁pemain 16853
みんなで 16854
ગા 16855
эк 16856
柄 16857
思维 16858
现在的话 16859
打底衫 16860
多个 16861
きっかけ 16862
▁দিয়ে 16863
的想法 16864
好的好的好的 16865
друзья 16866
暂 16867
지난 16868
틀 16869
你应该 16870
答复 16871
全力 16872
ゼ 16873
飼 16874
▁tộc 16875
port 16876
▁prabowo 16877
▁ہوتا 16878
统计 16879
사회 16880
期限 16881
주의 16882
判决 16883
抛 16884
廉 16885
▁минут 16886
90 16887
يع 16888
昆 16889
아서 16890
ены 16891
ところに 16892
нять 16893
▁것이다 16894
われ 16895
จี 16896
しまって 16897
ٕ 16898
풍 16899
おう 16900
上げて 16901
微信公众号 16902
他说他 16903
กี่ 16904
找一下 16905
ຜ 16906
很漂亮 16907
ばかり 16908
เพ 16909
続く 16910
နိုင် 16911
理论 16912
▁خوش 16913
全員 16914
庁 16915
▁vàng 16916
叫他 16917
занима 16918
东莞 16919
마다 16920
像我 16921
nar 16922
だったり 16923
授 16924
闹钟 16925
웠 16926
ျ 16927
▁pra 16928
怡 16929
フランス 16930
рис 16931
出して 16932
ໄ 16933
怨 16934
苍 16935
хан 16936
이번에 16937
韩版 16938
處 16939
漂 16940
ย้าย 16941
走吧 16942
จ้าง 16943
那个人 16944
کت 16945
▁lòng 16946
検討 16947
แม้ 16948
능 16949
ควบคุม 16950
平方 16951
▁nghề 16952
▁tidur 16953
пом 16954
пы 16955
▁кел 16956
▁کچھ 16957
跑到 16958
▁оно 16959
проб 16960
可以说 16961
好一点 16962
кар 16963
不了了 16964
评估 16965
▁наверное 16966
っこ 16967
囉 16968
周一 16969
มีด 16970
▁அங்க 16971
我也没 16972
お話 16973
佩 16974
▁tush 16975
欧洲 16976
▁общем 16977
們 16978
▁تین 16979
大一点 16980
ระบุ 16981
십오 16982
然后现在 16983
死的 16984
ູ 16985
▁나가 16986
▁같은데 16987
劫 16988
స్త 16989
其实我们 16990
ாங்க 16991
闷 16992
听听 16993
▁चीज़ 16994
आज 16995
教练 16996
ंगा 16997
有需要 16998
ડી 16999
可以啊 17000
บริษัท 17001
看得 17002
యి 17003
ời 17004
祭 17005
por 17006
ซ้าย 17007
वर् 17008
জে 17009
薇 17010
我他妈 17011
おお 17012
ther 17013
どうも 17014
త్ 17015
披露 17016
耗 17017
睡衣 17018
想办法 17019
сообщ 17020
优先 17021
南方 17022
一阵 17023
Me 17024
搞笑 17025
기업 17026
燃气 17027
▁quán 17028
رج 17029
财务 17030
戦い 17031
తే 17032
剂 17033
七六 17034
辰光 17035
ผู้ตาย 17036
您是说 17037
ชั่วโมง 17038
退休 17039
просто 17040
คุยกัน 17041
哎哟 17042
▁tưởng 17043
赶到 17044
чтобы 17045
谂 17046
પે 17047
ଲି 17048
ଲା 17049
提供的 17050
をしている 17051
▁hubungan 17052
ity 17053
今日も 17054
充分 17055
最爱 17056
ikat 17057
トル 17058
یوں 17059
จนถึง 17060
思った 17061
suatu 17062
えっと 17063
ాయి 17064
يە 17065
▁pasal 17066
漁 17067
夸 17068
очень 17069
ที่มัน 17070
лик 17071
機関 17072
を作って 17073
▁нэг 17074
差点 17075
போது 17076
帽 17077
▁кри 17078
请求 17079
кан 17080
ขน 17081
袭 17082
ライブ 17083
時間が 17084
驻 17085
課題 17086
危険 17087
ไร 17088
पै 17089
российск 17090
ft 17091
стрел 17092
masi 17093
كو 17094
ãi 17095
عي 17096
્યું 17097
一百万 17098
▁народ 17099
เท้า 17100
飲み 17101
ของนาย 17102
кров 17103
タン 17104
انہ 17105
왕 17106
▁quê 17107
磁 17108
蟹 17109
彻底 17110
されます 17111
▁导航到 17112
емся 17113
カレー 17114
▁своим 17115
ไหล 17116
啊嘛 17117
ご覧ください 17118
哪怕 17119
свобод 17120
囲 17121
୍ୟା 17122
九二 17123
アー 17124
ตรา 17125
碑 17126
陷 17127
padahal 17128
ம்ப 17129
▁право 17130
わら 17131
▁嗯是的 17132
شان 17133
媒 17134
เจ็บ 17135
obat 17136
打工 17137
表面 17138
ฐาน 17139
保养 17140
Р 17141
眼镜 17142
জি 17143
▁रूप 17144
十天 17145
ấu 17146
交代 17147
ของน้อง 17148
▁tòa 17149
煤 17150
▁câu 17151
கள் 17152
ғ 17153
putus 17154
▁많아 17155
▁બે 17156
▁lũ 17157
▁எல்லா 17158
俺は 17159
十七号 17160
▁pengu 17161
携 17162
छु 17163
เมตร 17164
理财 17165
小号 17166
发短信 17167
พัฒนา 17168
سام 17169
事業 17170
的手机号码 17171
落实 17172
리가 17173
激しい 17174
коп 17175
丘 17176
有咩 17177
こういった 17178
ация 17179
نە 17180
こんなに 17181
さて 17182
ుంది 17183
忘记了 17184
脉 17185
ваться 17186
મે 17187
way 17188
▁образом 17189
几多 17190
感覺 17191
▁kawan 17192
唱的 17193
辆车 17194
รู้ว่า 17195
▁هي 17196
▁никто 17197
反対 17198
තා 17199
свое 17200
跟大家 17201
طل 17202
ລະ 17203
ప్ 17204
婷 17205
▁खरीद 17206
ではなく 17207
▁ہوئے 17208
到达 17209
場で 17210
太太 17211
ัว 17212
等级 17213
他们说 17214
만큼 17215
ពី 17216
았다 17217
ตน 17218
يدۇ 17219
리고 17220
メダル 17221
▁ramai 17222
▁수도 17223
▁nasional 17224
வும் 17225
sat 17226
後半 17227
ไอ 17228
▁pusat 17229
支付宝账号 17230
的状态 17231
เดียวกัน 17232
りません 17233
▁उसमें 17234
预计 17235
二十二 17236
▁tránh 17237
クト 17238
더라고 17239
▁достаточно 17240
▁kiếm 17241
不太清楚 17242
即个 17243
ようと 17244
▁કઈ 17245
ソン 17246
为止 17247
ଥିବା 17248
扮 17249
只会 17250
นัน 17251
เร่ง 17252
相互 17253
ஓ 17254
▁siap 17255
age 17256
休み 17257
一层 17258
が発生 17259
mala 17260
альный 17261
▁происходит 17262
充满 17263
援 17264
contoh 17265
овых 17266
工厂 17267
这点 17268
NHK 17269
ப்பி 17270
▁family 17271
▁तब 17272
用过 17273
pis 17274
毛病 17275
が多く 17276
っきり 17277
いやいや 17278
她就 17279
资格 17280
いまして 17281
強化 17282
不给 17283
やめ 17284
▁그저 17285
解決 17286
пен 17287
呦 17288
그리 17289
脾气 17290
ử 17291
ặ 17292
一齐 17293
чный 17294
▁vui 17295
蒋 17296
▁высо 17297
кі 17298
拦 17299
证件 17300
中华 17301
▁داره 17302
смотри 17303
您贵姓 17304
必ず 17305
输了 17306
なんですけれども 17307
曜 17308
オン 17309
▁какая 17310
きっと 17311
るのが 17312
▁جائے 17313
คุณพ่อ 17314
ên 17315
කා 17316
衛 17317
▁ହୋଇ 17318
恵 17319
来吧 17320
记忆 17321
番の 17322
▁isang 17323
捞 17324
ਜ਼ 17325
ោ 17326
▁रहते 17327
빨리 17328
的活动 17329
面包 17330
สนใจ 17331
โปร 17332
那先生 17333
像我们 17334
бра 17335
屈 17336
тэй 17337
saran 17338
吗还是 17339
污染 17340
西门 17341
关联 17342
欺负 17343
継 17344
hampir 17345
hanya 17346
博士 17347
打个 17348
輝 17349
物件 17350
이야기 17351
来年 17352
рек 17353
ọc 17354
каждый 17355
護 17356
ấy 17357
тон 17358
还有个 17359
题目 17360
声が 17361
幽 17362
每周 17363
أنا 17364
ेट 17365
▁இப்ப 17366
郡 17367
цию 17368
يون 17369
レイ 17370
▁ایران 17371
▁कप 17372
かって 17373
ich 17374
tawa 17375
相比 17376
社保 17377
▁நி 17378
构 17379
數 17380
พี่น้อง 17381
▁chiếc 17382
ครึ่ง 17383
ష 17384
がいる 17385
居住 17386
向き 17387
పె 17388
lực 17389
同学们 17390
怎么着 17391
▁jenis 17392
▁meminta 17393
ගේ 17394
어제 17395
做完 17396
▁идет 17397
呢啲 17398
我的世界 17399
以内 17400
やら 17401
▁말이야 17402
▁mấy 17403
马路 17404
二十八 17405
讲了 17406
▁ہونے 17407
▁точно 17408
もらった 17409
▁ملک 17410
屎 17411
시험 17412
を行う 17413
什么是 17414
外国人 17415
iladi 17416
知らない 17417
▁friends 17418
▁거의 17419
yin 17420
อิน 17421
函 17422
に対する 17423
ડા 17424
พื้น 17425
соглас 17426
기술 17427
亲自 17428
けども 17429
සි 17430
と思うんですけど 17431
ির 17432
チャー 17433
пуска 17434
经典 17435
benar 17436
▁उसकी 17437
はありません 17438
東北 17439
肚 17440
的日子 17441
нер 17442
いたい 17443
九十九 17444
联合 17445
去看看 17446
比较大 17447
火锅 17448
つけて 17449
虐 17450
เนื่องจาก 17451
lihat 17452
膏 17453
Shu 17454
모습 17455
भाव 17456
кро 17457
你还是 17458
とっても 17459
怎么做 17460
สน 17461
ндай 17462
แบ 17463
电信 17464
进步 17465
ình 17466
නා 17467
gur 17468
上述 17469
طلب 17470
لاش 17471
或是 17472
日中 17473
นึก 17474
ไปเจอ 17475
▁کردن 17476
强大 17477
せい 17478
jang 17479
ચા 17480
▁опять 17481
▁பண்ணு 17482
▁嗯好的好的 17483
说到 17484
ích 17485
mpul 17486
นุ 17487
ตกใจ 17488
嗯那个 17489
국민 17490
ывают 17491
폰 17492
ý 17493
sim 17494
捉 17495
พิเศษ 17496
mặc 17497
今週 17498
罢 17499
ющий 17500
tkaz 17501
ไม่ให้ 17502
お客さん 17503
▁đầy 17504
첫 17505
batan 17506
団体 17507
▁উপ 17508
Tr 17509
alan 17510
练习 17511
ตั้งใจ 17512
원이 17513
ంగా 17514
先に 17515
ово 17516
นับ 17517
鸡蛋 17518
そういうの 17519
セット 17520
▁mera 17521
දෙ 17522
▁minggu 17523
大丈夫です 17524
ぐらいの 17525
▁تم 17526
洗澡 17527
到家 17528
寸 17529
衰 17530
▁свой 17531
作って 17532
ាន 17533
しかない 17534
分解 17535
يس 17536
うえで 17537
▁место 17538
目を 17539
더니 17540
ễ 17541
lap 17542
唔到 17543
เพิ่มเติม 17544
▁surat 17545
さすが 17546
ด้วยนะ 17547
ại 17548
▁nẵng 17549
బా 17550
楼上 17551
杀人 17552
▁job 17553
▁nỗ 17554
ที่จังหวัด 17555
大好き 17556
ผ้า 17557
학생 17558
そんなこと 17559
ก็ไม่ได้ 17560
得点 17561
এখন 17562
rian 17563
сид 17564
活着 17565
側の 17566
会给您 17567
龟 17568
มุม 17569
지가 17570
ผู้เสียชีวิต 17571
امی 17572
拿了 17573
ấm 17574
▁نام 17575
юр 17576
여러분 17577
早速 17578
▁નઈ 17579
ゾ 17580
jah 17581
خون 17582
っす 17583
พร้อมกับ 17584
เมา 17585
代码 17586
这边有 17587
ехал 17588
吸收 17589
豚 17590
棉袄 17591
ハイ 17592
tanggung 17593
オープン 17594
四十五 17595
ข้อความ 17596
资本 17597
模型 17598
kara 17599
写了 17600
给它 17601
讲一下 17602
フォー 17603
听得 17604
你知道吧 17605
▁만나 17606
▁agak 17607
พนักงาน 17608
operasi 17609
зер 17610
장이 17611
▁پہ 17612
訪れ 17613
وط 17614
ョ 17615
ວ່າ 17616
▁nghiên 17617
cả 17618
▁nghi 17619
AI 17620
▁থাক 17621
▁सारे 17622
वै 17623
撑 17624
ุ่ม 17625
的账号 17626
われて 17627
بعض 17628
正确的 17629
我跟你 17630
の世界 17631
几十 17632
▁bil 17633
可怕 17634
违法 17635
肯 17636
请播放 17637
bek 17638
和您 17639
యా 17640
액 17641
新型コロナ 17642
▁mắt 17643
少女 17644
蓄 17645
▁gió 17646
สู่ 17647
▁яв 17648
玩游戏 17649
大事な 17650
下路 17651
好好好好 17652
户口 17653
秋季 17654
▁對啊 17655
那您看 17656
ดําเนินการ 17657
新たに 17658
▁tele 17659
るよ 17660
▁этому 17661
たく 17662
พยาน 17663
дам 17664
kul 17665
กุ 17666
半天 17667
到这里 17668
یشن 17669
ائل 17670
形で 17671
瞬间 17672
咁啊 17673
기억 17674
非常感谢 17675
目に 17676
疗 17677
琳 17678
▁времени 17679
総理 17680
สนาม 17681
全额 17682
To 17683
月の 17684
찬 17685
那咱们 17686
долго 17687
放首 17688
til 17689
五七 17690
▁लेकर 17691
人民医院 17692
теля 17693
很容易 17694
只好 17695
पे 17696
情報を 17697
才知道 17698
高级 17699
ировал 17700
▁sehat 17701
億円 17702
朋友们 17703
رە 17704
原则 17705
оны 17706
四六 17707
ශ 17708
ほしい 17709
บี 17710
ランナー 17711
▁совершенно 17712
地元 17713
妮 17714
也知道 17715
ゃ 17716
实在是 17717
加大 17718
ద్ 17719
нің 17720
ทนาย 17721
거리 17722
▁успе 17723
該 17724
勝負 17725
設置 17726
▁뭐야 17727
とお 17728
▁tên 17729
房产 17730
ины 17731
경제 17732
节奏 17733
なと思って 17734
消失 17735
生存 17736
晚了 17737
けん 17738
收费站 17739
Э 17740
ดิน 17741
糊 17742
打扰您 17743
做一些 17744
污 17745
▁kpk 17746
郁 17747
ຫນ 17748
pung 17749
过程当中 17750
審 17751
thông 17752
侵攻 17753
的照片 17754
▁همه 17755
ill 17756
рай 17757
▁mempunyai 17758
лық 17759
ਰਾ 17760
要注意 17761
خواه 17762
这个车 17763
分配 17764
мужчин 17765
监控 17766
都被 17767
好食 17768
jan 17769
五九 17770
โด 17771
зар 17772
史上 17773
▁때는 17774
緊張 17775
为您服务 17776
大声 17777
日から 17778
блок 17779
都行 17780
するため 17781
먼저 17782
ата 17783
五分钟 17784
结清 17785
율 17786
改成 17787
毎 17788
ائن 17789
找他 17790
▁говорю 17791
ไหมคะ 17792
▁lớp 17793
▁చాలా 17794
まだまだ 17795
もあり 17796
棚 17797
いわゆる 17798
用品 17799
เพชร 17800
得意 17801
からも 17802
▁ادا 17803
กด 17804
征信 17805
ロシアの 17806
وجود 17807
▁يعني 17808
一群 17809
五四 17810
有一种 17811
ép 17812
یکی 17813
ที่นี่ 17814
어떻게 17815
若琪 17816
看您 17817
▁chịu 17818
实名 17819
スピード 17820
まん 17821
首次 17822
ポン 17823
回忆 17824
▁хочет 17825
踪 17826
યો 17827
しろ 17828
ସା 17829
南门 17830
ミリ 17831
रू 17832
観光 17833
前提 17834
有一次 17835
二人 17836
計画 17837
无人 17838
风格 17839
พูดถึง 17840
దే 17841
入口 17842
ҡа 17843
▁masak 17844
ஞ்ச 17845
▁đốc 17846
논 17847
かかって 17848
采取 17849
如果不 17850
缝 17851
展开 17852
ますので 17853
サイ 17854
大多数 17855
みます 17856
ைய 17857
▁họp 17858
च्च 17859
сем 17860
વાનું 17861
ивать 17862
二维码 17863
但是这个 17864
いき 17865
たっぷり 17866
应该有 17867
用那个 17868
公園 17869
你们这 17870
みよう 17871
اث 17872
▁sẻ 17873
ятся 17874
ଲ୍ 17875
пис 17876
నీ 17877
標 17878
空港 17879
▁ਨੇ 17880
消費 17881
▁យើង 17882
无奈 17883
▁cari 17884
ண் 17885
кен 17886
ประธาน 17887
ски 17888
sebetulnya 17889
▁వాళ్ళ 17890
อิ 17891
るという 17892
rish 17893
คุณผู้ชมครับ 17894
මි 17895
năm 17896
▁diberikan 17897
そっか 17898
きょうの 17899
▁tanya 17900
▁ad 17901
อุบัติเหตุ 17902
还有就是 17903
이를 17904
起诉 17905
认定 17906
▁belakang 17907
我问你 17908
บังคับ 17909
宴 17910
думал 17911
вес 17912
送给 17913
为准 17914
なくても 17915
จริงแล้ว 17916
pag 17917
仗 17918
换成 17919
客厅 17920
免费的 17921
尺 17922
▁menjaga 17923
▁nắng 17924
发表 17925
▁cử 17926
してくれ 17927
包含 17928
ऐ 17929
ลอย 17930
起きた 17931
預 17932
発生 17933
າດ 17934
لہ 17935
当て 17936
▁đợt 17937
ອນ 17938
那请问 17939
ена 17940
意味着 17941
部队 17942
的工作人员 17943
築 17944
そうか 17945
ением 17946
▁زندگی 17947
嗰只 17948
▁ដែល 17949
▁哦好的 17950
▁xu 17951
是通过 17952
▁الط 17953
yen 17954
▁ہوں 17955
非常非常 17956
▁qilin 17957
长江 17958
难以 17959
ヌ 17960
分かります 17961
显得 17962
房租 17963
▁tạp 17964
你喜欢 17965
表明 17966
سۇ 17967
变成了 17968
สัตว์ 17969
สุข 17970
▁голос 17971
ทั่ว 17972
上边 17973
出租车 17974
▁வெ 17975
ਸਾ 17976
送过来 17977
人々 17978
美丽 17979
込んだ 17980
ڈاکٹر 17981
フォ 17982
يمكن 17983
その時 17984
冰箱 17985
قص 17986
況 17987
余额宝 17988
บุคคล 17989
四八 17990
ставить 17991
适应 17992
甚 17993
字母 17994
атор 17995
يار 17996
訳 17997
阳市 17998
계획 17999
自行车 18000
▁呃那 18001
九幺 18002
▁berharap 18003
มาให้ 18004
ခု 18005
扇 18006
比方说 18007
停车场 18008
▁પ્ર 18009
幸せ 18010
เพื่อให้ 18011
▁gửi 18012
▁vững 18013
权限 18014
▁pasangan 18015
发挥 18016
新城 18017
正面 18018
ũ 18019
రే 18020
笨 18021
セン 18022
ไม่รู้ว่า 18023
那那那 18024
ớ 18025
カード 18026
今天下午 18027
一道 18028
еді 18029
ਤਾ 18030
ယ 18031
पाल 18032
溶 18033
へん 18034
sayang 18035
热线 18036
▁होगी 18037
七九 18038
런 18039
황 18040
橙 18041
真相 18042
青岛 18043
만들 18044
كې 18045
▁నేను 18046
зор 18047
ể 18048
有些人 18049
êu 18050
ล้ม 18051
とう 18052
退回 18053
▁trời 18054
商店 18055
今后 18056
家属 18057
demo 18058
五三 18059
月底 18060
你们都 18061
百姓 18062
われる 18063
▁selesai 18064
нуть 18065
ики 18066
までに 18067
一项 18068
牛仔裤 18069
本来就 18070
纵 18071
歪 18072
▁가면 18073
вел 18074
这边儿 18075
▁которых 18076
这个事 18077
охран 18078
ట్ 18079
就被 18080
ze 18081
زر 18082
ốc 18083
▁అది 18084
襲 18085
不应该 18086
dit 18087
mit 18088
的影响 18089
再见啊 18090
成分 18091
leng 18092
这把 18093
に来て 18094
感染者 18095
bra 18096
▁पांच 18097
干了 18098
肾 18099
這麼 18100
บริการ 18101
▁invest 18102
▁никогда 18103
misalnya 18104
是的是的 18105
▁memilih 18106
มันไม่ 18107
ござ 18108
น้ํามัน 18109
卖的 18110
쁘 18111
ി 18112
パス 18113
成功的 18114
还款日 18115
しょ 18116
ంలో 18117
▁dây 18118
界面 18119
▁nice 18120
有限 18121
除非 18122
ดื่ม 18123
方便吗 18124
agar 18125
继 18126
浜 18127
bit 18128
工商 18129
清晰 18130
▁pemilu 18131
一对一的 18132
четырнадцат 18133
帰って 18134
浦东 18135
ที่เกิดเหตุ 18136
北门 18137
에서도 18138
目標 18139
伸び 18140
рем 18141
哀 18142
▁khắc 18143
かせ 18144
とする 18145
которое 18146
جى 18147
ලි 18148
ଅ 18149
予報 18150
▁disampaikan 18151
ist 18152
なのに 18153
出演 18154
リング 18155
ស់ 18156
还是比较 18157
әй 18158
進んで 18159
▁đàn 18160
▁پہلے 18161
ที่อยู่ 18162
您说的 18163
辆 18164
▁phút 18165
장을 18166
一下您的 18167
ирует 18168
调到 18169
sebenarnya 18170
一百五十 18171
كەن 18172
▁lạ 18173
気温が 18174
ူ 18175
пятьдесят 18176
争取 18177
▁먹어 18178
▁равно 18179
边个 18180
пле 18181
▁keputusan 18182
つけた 18183
サッカー 18184
ению 18185
哪能 18186
▁گرفت 18187
ਕੀ 18188
創 18189
ුණ 18190
▁唉你好 18191
誰か 18192
龍 18193
предел 18194
ร้าย 18195
▁туда 18196
коль 18197
続けて 18198
的行为 18199
▁போயி 18200
ちゃって 18201
进去了 18202
ीय 18203
வர் 18204
нар 18205
▁嗯可以 18206
현재 18207
三个人 18208
▁dễ 18209
تىن 18210
▁vợ 18211
行われ 18212
▁आपने 18213
▁dpr 18214
划算 18215
정이 18216
给你发 18217
个电话 18218
亲戚 18219
主持 18220
กู้ภัย 18221
莎 18222
访问 18223
ですからね 18224
zar 18225
我估计 18226
七二 18227
ほんとに 18228
▁vai 18229
จัดการ 18230
смотрел 18231
须 18232
여러 18233
๕๐ 18234
超え 18235
受理 18236
をかけ 18237
などと 18238
唔同 18239
ัต 18240
▁rừng 18241
遂 18242
法人 18243
कों 18244
颈 18245
групп 18246
房地产 18247
اما 18248
农业 18249
Ti 18250
朋友圈 18251
今も 18252
▁kê 18253
反对 18254
ற்ற 18255
紧急 18256
영상 18257
待会 18258
ẳ 18259
商户 18260
レベル 18261
ток 18262
услов 18263
战争 18264
нял 18265
说得 18266
の問題 18267
命令 18268
که 18269
んな 18270
ះ 18271
▁சொல்லி 18272
ツー 18273
店铺 18274
แม 18275
▁বছর 18276
輸 18277
会有一个 18278
ىگە 18279
▁किस 18280
▁kỷ 18281
五分 18282
▁deb 18283
وك 18284
siapa 18285
ंट 18286
八四 18287
粉丝 18288
叹 18289
pir 18290
யும் 18291
บางที 18292
rum 18293
▁пример 18294
訴え 18295
なきゃいけない 18296
森林 18297
▁game 18298
流水 18299
▁chắc 18300
队友 18301
玩家 18302
ส่วนตัว 18303
라면 18304
ောင်း 18305
億 18306
指挥 18307
hingga 18308
什么事情 18309
ỉ 18310
れます 18311
テン 18312
▁आगे 18313
▁факт 18314
رز 18315
zim 18316
কাল 18317
त्त 18318
していきます 18319
贾 18320
เขียน 18321
ining 18322
دید 18323
不久 18324
த்துல 18325
▁malah 18326
자는 18327
已被 18328
机关 18329
会出现 18330
ாது 18331
透露 18332
ສິບ 18333
ide 18334
候補 18335
▁perusahaan 18336
損 18337
Per 18338
ଦି 18339
lahan 18340
芯 18341
писан 18342
宠物 18343
душ 18344
分かりました 18345
琪 18346
▁لوگوں 18347
をつけて 18348
这个产品 18349
▁गयी 18350
▁mute 18351
再说一遍 18352
たって 18353
ীর 18354
เฟ 18355
吕 18356
лог 18357
出差 18358
ttle 18359
己 18360
вторая 18361
マジ 18362
แก้ว 18363
ワー 18364
▁sahaja 18365
的费用 18366
病人 18367
모르겠 18368
үүл 18369
全身 18370
ений 18371
下单 18372
돼요 18373
辺り 18374
腐 18375
아니면 18376
봤어 18377
net 18378
▁vô 18379
汪汪队 18380
▁أي 18381
也是有 18382
เหตุการณ์นี้ 18383
間違い 18384
北部 18385
委員会 18386
子どもたち 18387
mbo 18388
等会儿 18389
एस 18390
ทุกวัน 18391
ウル 18392
可能性がある 18393
日本は 18394
has 18395
▁बताया 18396
अब 18397
あるいは 18398
▁самое 18399
坛 18400
呼叫 18401
▁обрат 18402
▁совсем 18403
なお 18404
وض 18405
пользу 18406
шим 18407
中継 18408
▁quang 18409
倉 18410
▁没有没有 18411
ကောင်း 18412
芬 18413
还还 18414
સુ 18415
달라 18416
▁कारण 18417
行われた 18418
ям 18419
を変え 18420
જી 18421
潭 18422
ホントに 18423
办了 18424
କ୍ଷ 18425
督 18426
▁बच्चे 18427
我的那个 18428
我直接 18429
ھى 18430
沪 18431
▁kabupaten 18432
一切都 18433
凌晨 18434
سې 18435
څ 18436
▁शुरू 18437
แล้วกัน 18438
कॉ 18439
实名认证 18440
▁তিন 18441
سىز 18442
哒 18443
準 18444
ตอนแรก 18445
所以就 18446
▁哦行 18447
চি 18448
山西 18449
शी 18450
▁peny 18451
老虎 18452
gel 18453
就觉得 18454
回去了 18455
▁mele 18456
mark 18457
▁चला 18458
ଥିଲା 18459
बि 18460
માર 18461
厂家 18462
▁college 18463
学员 18464
▁bá 18465
巻 18466
そば 18467
美容 18468
切って 18469
▁takut 18470
暂时没有 18471
raja 18472
стать 18473
なくなる 18474
mata 18475
际 18476
大幅 18477
bantu 18478
ଂ 18479
▁айт 18480
줬 18481
剛 18482
框 18483
失望 18484
는데요 18485
徳 18486
▁наши 18487
報道 18488
ยืนยันว่า 18489
ทะเบียน 18490
指出 18491
款项 18492
▁Malaysia 18493
加速 18494
чь 18495
いよいよ 18496
▁phim 18497
суд 18498
잔 18499
培 18500
дра 18501
ىپ 18502
是是是 18503
iPad 18504
центр 18505
ริม 18506
baru 18507
指标 18508
人哋 18509
詰め 18510
▁पूरा 18511
なぁ 18512
▁trao 18513
▁thăm 18514
ขึ้นไป 18515
gina 18516
▁پاس 18517
беж 18518
▁bão 18519
▁joy 18520
▁بھائی 18521
▁độc 18522
战斗 18523
組織 18524
信じ 18525
体检 18526
鳴 18527
상태 18528
حم 18529
где 18530
غل 18531
टो 18532
うんうんうん 18533
睡眠 18534
ทุ่ม 18535
เปิดเผย 18536
مثل 18537
овый 18538
▁போய் 18539
▁بازی 18540
มีปัญหา 18541
你那边 18542
লো 18543
发过来 18544
லே 18545
ここからは 18546
رائ 18547
ねぇ 18548
лей 18549
เท่าไหร่ 18550
▁అవును 18551
没看到 18552
મો 18553
▁向晚意不适 18554
তুমি 18555
知って 18556
签收 18557
▁அப்ப 18558
先輩 18559
娶 18560
一百二十 18561
manfaat 18562
温暖 18563
▁bentuk 18564
▁kanggo 18565
不要再 18566
▁phi 18567
કે 18568
国庆 18569
疏 18570
▁మ్ 18571
▁cháu 18572
한데 18573
二十三 18574
这时 18575
强烈 18576
શું 18577
pt 18578
▁menerima 18579
masih 18580
定期 18581
怎么弄 18582
▁часть 18583
ছেন 18584
ір 18585
アイ 18586
තර 18587
пред 18588
なっちゃう 18589
เมื่อวาน 18590
陈述 18591
殖 18592
氷 18593
ral 18594
फे 18595
윤 18596
ですので 18597
利率 18598
▁करा 18599
我讲 18600
အဲဒီ 18601
urus 18602
七三 18603
ぽ 18604
髪 18605
大爷 18606
となります 18607
นิด 18608
那不是 18609
협 18610
สองคน 18611
绵 18612
睇下 18613
станов 18614
หน 18615
惜 18616
要不你 18617
一刻 18618
ంత 18619
ोर 18620
받았 18621
ニア 18622
актив 18623
演出 18624
好想 18625
无锡 18626
습 18627
办公 18628
ですし 18629
겠죠 18630
炼 18631
▁allah 18632
ครบ 18633
말을 18634
▁uống 18635
тел 18636
そうそう 18637
ẹ 18638
もなく 18639
凤凰 18640
我是说 18641
час 18642
ଳି 18643
电梯 18644
내려 18645
▁pene 18646
نفس 18647
挂失 18648
เองก็ 18649
恐怕 18650
sebagai 18651
▁стоит 18652
▁стол 18653
▁penyakit 18654
逐渐 18655
▁nghe 18656
是这个意思 18657
бан 18658
ଁ 18659
спорт 18660
济南 18661
一緒 18662
মন 18663
тора 18664
時から 18665
▁бог 18666
三国 18667
▁такого 18668
▁خوب 18669
革 18670
ไปเลย 18671
かける 18672
スタジオ 18673
saudara 18674
ठा 18675
밤 18676
ල් 18677
主体 18678
括 18679
ளா 18680
发育 18681
おはようございます 18682
假如 18683
一気に 18684
所以这个 18685
▁있나요 18686
観測 18687
胜利 18688
දී 18689
ตู้ 18690
เกือบ 18691
几分钟 18692
మ్మ 18693
を受けた 18694
可能要 18695
評 18696
屋さん 18697
ଦେ 18698
เลยว่า 18699
지역 18700
iệt 18701
ເປັນ 18702
规范 18703
ncang 18704
กล 18705
咲 18706
を入れて 18707
至今 18708
传奇 18709
四九 18710
你們 18711
વે 18712
你看你 18713
也比较 18714
ళ్ళ 18715
时刻 18716
然后还有 18717
拍的 18718
很抱歉 18719
दार 18720
绘 18721
ดาว 18722
協 18723
邻居 18724
ருக்க 18725
绑定的 18726
bebas 18727
国会 18728
Da 18729
開け 18730
野さん 18731
仲間 18732
你看一下 18733
学期 18734
从来 18735
いたします 18736
不要挂机 18737
▁қо 18738
lov 18739
ona 18740
สังเกต 18741
裸 18742
▁қал 18743
槽 18744
▁شروع 18745
そうだね 18746
出嚟 18747
付近 18748
▁nghỉ 18749
覚えて 18750
待って 18751
权益 18752
つける 18753
▁sai 18754
半个小时 18755
มะ 18756
在乎 18757
▁啊行 18758
กระทํา 18759
помни 18760
사고 18761
完了之后 18762
Tu 18763
▁માટે 18764
бой 18765
아버지 18766
问了 18767
ドイツ 18768
美元 18769
▁vay 18770
只有一个 18771
▁спец 18772
车险 18773
といった 18774
ชี้แจง 18775
柜台 18776
ด้วยความ 18777
▁dấu 18778
长安 18779
闯 18780
▁gái 18781
ਹੀ 18782
六三 18783
เร 18784
▁tín 18785
ศึกษา 18786
bri 18787
一颗 18788
Pe 18789
政府は 18790
周边 18791
ほう 18792
ரை 18793
тыр 18794
знаком 18795
아마 18796
تور 18797
๑๕ 18798
▁كۆر 18799
pla 18800
ंगी 18801
烫 18802
갑 18803
лять 18804
鸣 18805
煎 18806
▁своих 18807
执法 18808
பே 18809
んでいる 18810
뿐 18811
比べ 18812
ですけれども 18813
абсолютно 18814
ඒ 18815
ੜ 18816
▁यही 18817
▁интересно 18818
वन 18819
脸上 18820
เนี่ยมัน 18821
大连 18822
的形式 18823
激动 18824
▁agama 18825
確保 18826
拓 18827
ىغا 18828
▁правильно 18829
你看我 18830
▁bổ 18831
مې 18832
แปลก 18833
ธุรกิจ 18834
连衣裙 18835
趟 18836
ផ្ 18837
在中国 18838
มีอะไร 18839
好拜拜 18840
겠습니다 18841
▁tambah 18842
ตัดสินใจ 18843
▁membe 18844
澜 18845
යා 18846
往后 18847
われた 18848
تها 18849
掛け 18850
斌 18851
縮 18852
不舒服 18853
곡 18854
我明天 18855
公安局 18856
惑 18857
wisata 18858
पो 18859
شعر 18860
蜂 18861
▁toán 18862
ଙ୍କୁ 18863
▁trồng 18864
▁online 18865
▁बैठ 18866
ḥ 18867
七天 18868
ที่ถูก 18869
您说一下 18870
大姐 18871
ਰੀ 18872
万块钱 18873
六四 18874
щей 18875
▁அப்புறம் 18876
优化 18877
ほどの 18878
пет 18879
र्थ 18880
会觉得 18881
支え 18882
қан 18883
再打 18884
คม 18885
没看 18886
▁Kena 18887
给你打电话 18888
尽管 18889
一组 18890
овая 18891
不止 18892
周期 18893
▁嗯好的那 18894
▁имеет 18895
좋은 18896
摩托车 18897
小子 18898
ଷ 18899
ニング 18900
变形金刚 18901
бил 18902
助け 18903
スタン 18904
▁guru 18905
乘客 18906
来首 18907
▁yuz 18908
透明 18909
▁ఉండ 18910
加快 18911
র্থ 18912
▁non 18913
ہٕ 18914
到位 18915
ắm 18916
想像 18917
凝 18918
点开 18919
자리 18920
されていた 18921
它就是 18922
幹 18923
我跟你讲 18924
还说 18925
坪 18926
桜 18927
反正就是 18928
二十六 18929
냈 18930
吃完 18931
▁않았 18932
好事 18933
▁già 18934
シーン 18935
为什么会 18936
брос 18937
上涨 18938
做一下 18939
へと 18940
▁является 18941
なんですよね 18942
まさか 18943
钉 18944
日間 18945
ชะ 18946
相同 18947
的一个情况 18948
头像 18949
▁कार्य 18950
nó 18951
抑え 18952
疲 18953
行為 18954
ませ 18955
シェ 18956
鍋 18957
ダン 18958
해줘 18959
də 18960
需要咨询 18961
รวมถึง 18962
是不是啊 18963
pina 18964
你们俩 18965
粥 18966
▁lừa 18967
过得 18968
الله 18969
肤 18970
婆婆 18971
唱首 18972
ชัด 18973
有病 18974
▁दस 18975
รางวัล 18976
дээ 18977
ອງ 18978
本金 18979
ன்ன 18980
ਏ 18981
晃 18982
来电话 18983
嘴巴 18984
动力 18985
ਧ 18986
▁میشه 18987
しょう 18988
調整 18989
▁کتاب 18990
を使った 18991
想过 18992
инская 18993
บริหาร 18994
三十五 18995
ໃນ 18996
喂您好 18997
韓 18998
ہمارے 18999
投手 19000
▁произ 19001
蹲 19002
前两天 19003
▁lắm 19004
здесь 19005
聞く 19006
てしまう 19007
そうそうそう 19008
▁کیا۔ 19009
不小心 19010
▁করি 19011
ร่วมกัน 19012
投資 19013
เนี่ยนะ 19014
共享 19015
ලා 19016
▁tepat 19017
是非 19018
▁dụ 19019
слав 19020
▁chặt 19021
感觉到 19022
舟 19023
වැ 19024
を作る 19025
回事 19026
赫 19027
щего 19028
けば 19029
疲れ 19030
爱吃 19031
ไปด้วย 19032
手表 19033
伞 19034
鼎 19035
到最后 19036
伤心 19037
怎么说呢 19038
发出 19039
더라고요 19040
芭 19041
лам 19042
▁life 19043
を超える 19044
▁tersangka 19045
新人 19046
越多 19047
攻め 19048
コース 19049
会比较 19050
สิน 19051
ណា 19052
晚安 19053
查查 19054
▁때문 19055
▁buah 19056
▁segala 19057
ジャー 19058
喝了 19059
يز 19060
ということを 19061
ஹ 19062
做饭 19063
ส์ 19064
огром 19065
側に 19066
渣 19067
暂停 19068
多么 19069
そうすると 19070
ходить 19071
اسی 19072
くれて 19073
▁phản 19074
▁talaga 19075
▁哦对 19076
必要な 19077
ケース 19078
会談 19079
ご飯 19080
▁प्रति 19081
疾 19082
これだけ 19083
поли 19084
จับกลุ่ม 19085
кин 19086
雕 19087
병원 19088
なきゃ 19089
▁глаза 19090
เป็นเรื่อง 19091
好的先生 19092
十四号 19093
것같 19094
◆ 19095
ค่อนข้าง 19096
九四 19097
▁એમ 19098
▁lagu 19099
ආ 19100
▁rupiah 19101
▁वहां 19102
โอกาส 19103
借呗 19104
บุ 19105
耽误 19106
傳 19107
▁چل 19108
ино 19109
BB 19110
੍ 19111
スタッフ 19112
લો 19113
갑자기 19114
▁обо 19115
作者 19116
징 19117
อนุ 19118
早い 19119
ロシア軍 19120
返还 19121
貨 19122
▁khẩn 19123
两张 19124
아침 19125
回应 19126
罩 19127
▁ذلك 19128
有有有 19129
فض 19130
往前 19131
渔 19132
сторон 19133
るんですけど 19134
แล้วเนี่ย 19135
谢谢谢谢 19136
cle 19137
▁તમે 19138
NON 19139
少ない 19140
▁બધા 19141
▁முடி 19142
两分钟 19143
kake 19144
▁kuni 19145
▁tugas 19146
成果 19147
とり 19148
หายไป 19149
中年 19150
శా 19151
ありますね 19152
どうした 19153
maaf 19154
ช่วงนี้ 19155
応 19156
なこと 19157
แถลง 19158
▁keadaan 19159
起來 19160
姐妹 19161
のない 19162
стве 19163
怎么啦 19164
开发区 19165
ậu 19166
猴 19167
ระวัง 19168
边儿 19169
専門家 19170
新潟 19171
那種 19172
タイミング 19173
انے 19174
әл 19175
▁ngọc 19176
那块 19177
स्थ 19178
ないです 19179
พูดคุย 19180
▁kaki 19181
出る 19182
▁bangsa 19183
off 19184
募 19185
kelompok 19186
Đ 19187
▁berhasil 19188
ున్నా 19189
ූ 19190
があると 19191
▁ноль 19192
保護 19193
▁nai 19194
วิน 19195
▁feel 19196
নতুন 19197
婴儿 19198
中国银行 19199
▁कहाँ 19200
▁тысяч 19201
▁嗯你好 19202
非要 19203
ขนาดนี้ 19204
▁वजह 19205
ยุทธ 19206
官员 19207
pertanyaan 19208
はまだ 19209
▁kepolisian 19210
核对一下 19211
кое 19212
的业务 19213
ボー 19214
地元の 19215
গে 19216
дай 19217
目前的话 19218
ประกัน 19219
肯定要 19220
ঠ 19221
▁lây 19222
哎你好 19223
군요 19224
軟 19225
厨 19226
عرف 19227
▁phóng 19228
收款 19229
айте 19230
▁kereta 19231
果たして 19232
牛奶 19233
最初の 19234
▁реальн 19235
स्था 19236
▁இருக்கா 19237
攞 19238
▁lương 19239
しゃべ 19240
کٹ 19241
▁cnn 19242
留言 19243
チェック 19244
▁pendidikan 19245
这笔 19246
กะ 19247
▁எப்படி 19248
▁گیا۔ 19249
メッセージ 19250
常常 19251
bol 19252
ベスト 19253
但他 19254
我也想 19255
兄弟们 19256
というもの 19257
ਕੇ 19258
ছা 19259
ڈر 19260
ဖြ 19261
フライ 19262
您看可以吗 19263
harap 19264
ਫ 19265
juga 19266
小学校 19267
بان 19268
早晨 19269
如果他 19270
只是说 19271
誘 19272
腻 19273
ئۇ 19274
ikut 19275
这个手机号 19276
บัตร 19277
들도 19278
澳 19279
เป็นผู้ 19280
провод 19281
sẽ 19282
ура 19283
gram 19284
九三 19285
メニュー 19286
▁đón 19287
当你 19288
▁බව 19289
▁Nam 19290
▁прямо 19291
ないから 19292
的需求 19293
ไม่ค่อย 19294
就比如说 19295
อํานาจ 19296
四万 19297
sion 19298
kot 19299
生活中 19300
委托 19301
ได้ไหม 19302
령 19303
最高気温 19304
now 19305
жет 19306
ాల 19307
事实上 19308
▁sebagainya 19309
▁thẩm 19310
ช่วยกัน 19311
сказ 19312
وڑ 19313
গত 19314
发现了 19315
학원 19316
二十一 19317
คนขับ 19318
皇上 19319
ผู้ที่ 19320
แว 19321
听懂 19322
▁власти 19323
著是 19324
ាប់ 19325
发言 19326
漠 19327
▁అయి 19328
这几个 19329
▁bantuan 19330
кал 19331
旭 19332
کاری 19333
▁داشت 19334
тө 19335
一顿 19336
环保 19337
ประโยชน์ 19338
▁davlat 19339
ື່ 19340
捨て 19341
หมา 19342
жар 19343
房屋 19344
いたら 19345
คนเดียว 19346
যোগ 19347
タイプ 19348
علاق 19349
區 19350
▁akhir 19351
安静 19352
にいる 19353
лад 19354
编号 19355
采购 19356
我々 19357
заб 19358
的过程 19359
皇帝 19360
先週 19361
▁кү 19362
公积金 19363
そうなんですよ 19364
歇 19365
ยง 19366
廷 19367
漫画 19368
했습니다 19369
ു 19370
wal 19371
ଚା 19372
切れ 19373
春天 19374
림 19375
自民党 19376
ของการ 19377
ایک 19378
▁perkara 19379
専門 19380
息子 19381
국가 19382
一點 19383
لىشى 19384
▁پیدا 19385
是什么时候 19386
େଇ 19387
▁dư 19388
▁гос 19389
普通话 19390
▁говорят 19391
のうち 19392
จุ 19393
এক 19394
ลาก 19395
突出 19396
Bir 19397
くなった 19398
漆 19399
अनु 19400
込め 19401
Biz 19402
▁nổi 19403
езд 19404
一米 19405
嗯再见 19406
累了 19407
总体 19408
川さん 19409
နော် 19410
热情 19411
27 19412
চার 19413
เสนอ 19414
系列 19415
હો 19416
痴 19417
你以为 19418
▁हां 19419
が好き 19420
▁sư 19421
对接 19422
پل 19423
26 19424
结算 19425
嘎 19426
だという 19427
▁деп 19428
▁first 19429
▁компани 19430
拿出来 19431
よい 19432
عاد 19433
liên 19434
สรุป 19435
大陆 19436
ไหว้ 19437
想买 19438
好多人 19439
▁पापा 19440
রু 19441
되었 19442
ຫຼ 19443
▁posisi 19444
预留 19445
даг 19446
前天 19447
記者 19448
服了 19449
ному 19450
啱 19451
▁помог 19452
bina 19453
制限 19454
แบ่ง 19455
▁pemba 19456
证实 19457
得多 19458
我们今天 19459
卧室 19460
صبح 19461
外交 19462
的話 19463
분에 19464
坝 19465
我们俩 19466
前半 19467
枕 19468
ладно 19469
▁ہوئی 19470
女士您 19471
ret 19472
提前还款 19473
▁phức 19474
خص 19475
那个支付宝 19476
然后它 19477
ผู้เสียหาย 19478
стей 19479
的支持 19480
определен 19481
स्ता 19482
yak 19483
ベル 19484
лага 19485
▁собственно 19486
的能力 19487
ục 19488
审批 19489
一起来 19490
တွင် 19491
立つ 19492
体が 19493
зап 19494
De 19495
宽带 19496
食材 19497
▁जाएगा 19498
ักษ์ 19499
지요 19500
слыш 19501
そもそも 19502
▁చేయ 19503
地址是 19504
ไม่มีใคร 19505
加班 19506
るため 19507
ండ 19508
一楼 19509
કો 19510
ยาเสพติด 19511
म्म 19512
介入 19513
盲 19514
今シーズン 19515
ющие 19516
代谢 19517
打席 19518
年度 19519
undang 19520
ví 19521
わたし 19522
осы 19523
広島 19524
▁واحد 19525
ruk 19526
您看您 19527
顾客 19528
横浜 19529
▁કરવા 19530
雀 19531
komunikasi 19532
が一番 19533
▁طرح 19534
มอเตอร์ไซค์ 19535
ชุมนุม 19536
енко 19537
地位 19538
▁trà 19539
ものの 19540
فون 19541
ੀਆਂ 19542
告诉他 19543
뜻 19544
▁suami 19545
ုပ် 19546
dự 19547
खो 19548
这个样子 19549
首付 19550
兵线 19551
你不能 19552
اض 19553
もともと 19554
我就觉得 19555
ฉีด 19556
غى 19557
អ្នក 19558
窓 19559
ясь 19560
باد 19561
干活 19562
上昇 19563
рей 19564
后四位 19565
峡 19566
ହେ 19567
▁पानी 19568
ंप 19569
เดี๋ยวจะ 19570
んや 19571
làm 19572
懂得 19573
欠款 19574
联系我 19575
战士 19576
紀 19577
ว่าเขา 19578
太郎 19579
村さん 19580
保健 19581
ован 19582
йдет 19583
▁बजे 19584
そうなんだ 19585
मेरे 19586
» 19587
말씀 19588
迈 19589
ることができ 19590
石油 19591
家里面 19592
唤 19593
ทะเล 19594
▁khusus 19595
นักเรียน 19596
솔직히 19597
▁والے 19598
sebagian 19599
เขามี 19600
泉州 19601
我看你 19602
พิจารณา 19603
انت 19604
上个月 19605
どうしても 19606
400 19607
왔다 19608
▁হয়ে 19609
前往 19610
▁таких 19611
んですかね 19612
त्य 19613
ユー 19614
还不如 19615
جہ 19616
剩下的 19617
tổng 19618
もあった 19619
上个 19620
▁giai 19621
このまま 19622
คล้าย 19623
हो 19624
yicha 19625
地面 19626
但是现在 19627
ование 19628
デン 19629
Do 19630
ক্র 19631
んだって 19632
▁đoạt 19633
くれ 19634
▁deg 19635
▁других 19636
新年 19637
緑 19638
しようと 19639
案例 19640
るんです 19641
드리 19642
梯 19643
利润 19644
までは 19645
帮我查一下 19646
もありました 19647
ป้องกัน 19648
那个地方 19649
仅仅 19650
తె 19651
深入 19652
芽 19653
解答 19654
ต้องไป 19655
的女人 19656
坤 19657
払 19658
▁哎对 19659
ดัน 19660
દા 19661
28 19662
ానికి 19663
▁страны 19664
звони 19665
جمع 19666
내일 19667
▁tingkat 19668
ші 19669
選手は 19670
bot 19671
สิ้น 19672
洗衣机 19673
▁করেন 19674
사람이 19675
現地 19676
評価 19677
田中 19678
คุณยาย 19679
банк 19680
▁сами 19681
てくる 19682
我国 19683
เนี่ยเขา 19684
▁vọng 19685
半分 19686
ိုင် 19687
星期六 19688
ที่ว่า 19689
ණ 19690
财富 19691
也不用 19692
▁ఉంటా 19693
▁mengha 19694
กระแส 19695
หนังสือ 19696
почему 19697
чка 19698
出來 19699
กันอยู่ 19700
いただく 19701
▁dịp 19702
▁tầng 19703
пан 19704
你直接 19705
低い 19706
吃过 19707
那么我们 19708
柯 19709
这些人 19710
王者 19711
打死 19712
防衛 19713
失敗 19714
师父 19715
作出 19716
对话 19717
มั่น 19718
ौर 19719
裙子 19720
公交站 19721
өм 19722
причин 19723
会見 19724
热闹 19725
ுற 19726
弥 19727
после 19728
っつ 19729
情感 19730
が確認され 19731
ยู 19732
▁saksi 19733
チェ 19734
▁نیست 19735
爸妈 19736
くり 19737
وو 19738
▁زیادی 19739
số 19740
边度 19741
фо 19742
電気 19743
ись 19744
練 19745
▁көр 19746
னும் 19747
いただきました 19748
즐 19749
▁решил 19750
留在 19751
椅 19752
maju 19753
راق 19754
▁chết 19755
瘾 19756
盾 19757
твор 19758
сет 19759
他已经 19760
▁دەپ 19761
物理 19762
るんですよ 19763
佬 19764
코로나 19765
แห่งชาติ 19766
グル 19767
と言って 19768
▁phiên 19769
дает 19770
ผลิต 19771
なんだろう 19772
일어 19773
крыл 19774
第六 19775
恭喜 19776
▁بولۇپ 19777
35 19778
なくなった 19779
なさい 19780
叠 19781
jaya 19782
書き 19783
推动 19784
కే 19785
数は 19786
begitu 19787
▁निकल 19788
大家好 19789
дор 19790
ଏହି 19791
றா 19792
اك 19793
▁ئۈ 19794
รัง 19795
并非 19796
醫 19797
케이 19798
其实就是 19799
啰 19800
▁menyebabkan 19801
рон 19802
取った 19803
ในบ้าน 19804
เห็นไหม 19805
奸 19806
前から 19807
شک 19808
皮鞋 19809
สถาน 19810
みたいな感じ 19811
你哋 19812
ถือว่า 19813
ถือว่าเป็น 19814
機能 19815
тельно 19816
扛 19817
ทัน 19818
ればいい 19819
といえば 19820
beberapa 19821
мә 19822
▁арван 19823
สมมุติ 19824
合适的 19825
▁menuju 19826
据了解 19827
塑 19828
over 19829
oto 19830
demi 19831
▁cập 19832
伪 19833
再联系 19834
まれた 19835
ゆう 19836
▁menunjukkan 19837
پس 19838
정을 19839
화를 19840
議論 19841
ซะ 19842
dha 19843
▁видим 19844
bay 19845
不记得 19846
猎 19847
컴퓨터 19848
只要你 19849
правил 19850
그건 19851
มีโอกาส 19852
ức 19853
究 19854
측 19855
额外 19856
놓고 19857
这时候 19858
ார் 19859
暴力 19860
자신 19861
不爱 19862
好嘞好嘞 19863
それだけ 19864
霍 19865
퇴 19866
กําหนด 19867
九七 19868
福島 19869
ก็มีการ 19870
thủ 19871
ปู 19872
大约 19873
広げ 19874
▁alat 19875
班主任 19876
見通し 19877
每个人都 19878
ồi 19879
でしたね 19880
ラム 19881
라서 19882
เสียหาย 19883
impi 19884
ких 19885
ほんと 19886
我马上 19887
્યો 19888
собира 19889
ଡ 19890
雇 19891
查询到 19892
我个人 19893
释 19894
สติ 19895
に行った 19896
营业 19897
대표 19898
出た 19899
头上 19900
リスト 19901
同一个 19902
просил 19903
дов 19904
તું 19905
ప్పుడు 19906
센 19907
东门 19908
っちゃって 19909
▁چىق 19910
▁مشکل 19911
ત્ર 19912
定义 19913
わかる 19914
னே 19915
してます 19916
させた 19917
開かれ 19918
二十七 19919
ตื่น 19920
▁rela 19921
یی 19922
耐心 19923
번째 19924
おく 19925
谁能 19926
招商 19927
▁வந்த 19928
شون 19929
ตรี 19930
そうで 19931
ậy 19932
продолжа 19933
一時 19934
▁qildi 19935
ยอม 19936
はじめ 19937
▁pilihan 19938
赴 19939
개인 19940
的话也是 19941
eksi 19942
接电话 19943
受不了 19944
이면 19945
笑顔 19946
သား 19947
语文 19948
▁hồng 19949
遗憾 19950
各方面 19951
名单 19952
勘 19953
▁hùng 19954
孕 19955
卻 19956
เล่าให้ฟัง 19957
फी 19958
▁назад 19959
દી 19960
ほかの 19961
置いて 19962
热水器 19963
пита 19964
蓉 19965
电动车 19966
बे 19967
୍ୱ 19968
ありますか 19969
▁duduk 19970
剤 19971
▁નથી 19972
๔๐ 19973
ىدىغان 19974
руж 19975
请您稍后 19976
ฟ้อง 19977
葡萄 19978
▁berlaku 19979
社員 19980
اقتصاد 19981
大地 19982
太好了 19983
食べた 19984
king 19985
用来 19986
カン 19987
銀行 19988
ไม่สามารถ 19989
เนี่ยก็ 19990
▁одной 19991
اصل 19992
的额度 19993
▁positif 19994
▁করার 19995
毋知 19996
항상 19997
обществ 19998
갖고 19999
ून 20000
ங்களா 20001
▁음식 20002
▁boshqa 20003
ивает 20004
かれた 20005
号儿 20006
▁کرتا 20007
道歉 20008
笼 20009
진행 20010
begini 20011
300 20012
方がいい 20013
▁байгаа 20014
▁देखने 20015
ミサイル 20016
往上 20017
▁آر 20018
▁کریں 20019
耐心等待 20020
пас 20021
条款 20022
ଯ 20023
ষ্ট 20024
啥呀 20025
それも 20026
ઠ 20027
崔 20028
混ぜ 20029
海洋 20030
購入 20031
合法 20032
ayotgan 20033
▁थोड़ा 20034
โพ 20035
многие 20036
▁are 20037
เบื้องต้น 20038
児 20039
开户 20040
فه 20041
แล้วมัน 20042
谁知道 20043
▁पनि 20044
слов 20045
แล้วค่ะ 20046
▁ngăn 20047
整天 20048
엄 20049
您需要 20050
自家 20051
しん 20052
れました 20053
علی 20054
▁lâu 20055
▁laut 20056
嫩 20057
ิง 20058
политик 20059
▁berke 20060
規模 20061
ులు 20062
내용 20063
らん 20064
投稿 20065
获取 20066
ごはん 20067
ицы 20068
หนี้ 20069
ไข่ 20070
мел 20071
หัน 20072
▁ہوتی 20073
ាយ 20074
最快 20075
追加 20076
สัง 20077
犯人 20078
عه 20079
▁अरे 20080
▁啊你好 20081
庫 20082
дың 20083
돈을 20084
漂亮的 20085
ئۇنىڭ 20086
▁dirinya 20087
将会 20088
믿 20089
聚会 20090
र्स 20091
бал 20092
isa 20093
อ่าน 20094
を持つ 20095
▁khẳng 20096
▁ketemu 20097
จุดที่ 20098
ء 20099
맥 20100
食事 20101
▁குடு 20102
นําตัว 20103
没有时间 20104
白云 20105
โชค 20106
二楼 20107
مط 20108
あんな 20109
経営 20110
季節 20111
帆 20112
шка 20113
▁बीच 20114
全国の 20115
лә 20116
▁chặn 20117
คาดว่า 20118
▁সম্ 20119
ప్ప 20120
天猫 20121
อย่างนั้น 20122
▁вместе 20123
လုံး 20124
अप 20125
新疆 20126
没啥 20127
大队 20128
혀 20129
認識 20130
వె 20131
加工 20132
するなど 20133
ຖ 20134
走走 20135
阅 20136
接收 20137
กีฬา 20138
掏 20139
町の 20140
뜨 20141
নো 20142
うちに 20143
хож 20144
恐龙 20145
двига 20146
危机 20147
我跟他 20148
自主 20149
▁cận 20150
первая 20151
联通 20152
客气 20153
▁나온 20154
报价 20155
兜 20156
時点で 20157
▁કોઈ 20158
いきました 20159
设施 20160
▁cà 20161
▁bikin 20162
陪我 20163
тся 20164
福岡 20165
申诉 20166
詳しい 20167
친구들 20168
怎么可能 20169
▁thắng 20170
تىپ 20171
毅 20172
普通に 20173
死我了 20174
ឹ 20175
新聞 20176
شكل 20177
明白吗 20178
▁sóc 20179
職員 20180
睡了 20181
フト 20182
只要是 20183
กิจ 20184
▁말고 20185
一百八十 20186
事務所 20187
趋势 20188
ਲਾ 20189
訪問 20190
盼 20191
二十万 20192
средств 20193
▁giác 20194
ishni 20195
රු 20196
khawatir 20197
赋 20198
헤 20199
联盟 20200
讲到 20201
啥时候 20202
систем 20203
不得不 20204
harus 20205
上升 20206
гаа 20207
▁terbaik 20208
يان 20209
однако 20210
经销商 20211
旦 20212
ெல்லாம் 20213
ீங்க 20214
转移 20215
吞 20216
unjuk 20217
呢度 20218
ส่วนใหญ่ 20219
の映像 20220
天空 20221
ดังกล่าว 20222
딸 20223
nes 20224
▁команд 20225
act 20226
▁pemu 20227
หน่วยงาน 20228
姿勢 20229
▁thừa 20230
てない 20231
取り組み 20232
瓷 20233
筆 20234
するよう 20235
▁chóng 20236
မယ် 20237
สอบถาม 20238
いますが 20239
因为咱们 20240
관계 20241
一百一十 20242
发给你 20243
ชี้ 20244
氏は 20245
▁должно 20246
рес 20247
▁trộm 20248
新型コロナウイルス 20249
平衡 20250
昨晚 20251
▁мало 20252
ドラ 20253
▁انسان 20254
功夫 20255
水分 20256
ซ้ํา 20257
대요 20258
这回 20259
薛 20260
邮政 20261
栗 20262
BABA 20263
中原银行 20264
的同学 20265
まれ 20266
いている 20267
다섯 20268
▁chồng 20269
▁बड़ा 20270
ค่อย 20271
फि 20272
螺 20273
負担 20274
通州 20275
धी 20276
빼 20277
کور 20278
♪ 20279
▁खुद 20280
สัน 20281
جز 20282
стру 20283
バッター 20284
альные 20285
▁بند 20286
▁जिस 20287
аются 20288
夫婦 20289
娇 20290
ราม 20291
க்கும் 20292
ไฟฟ้า 20293
ھە 20294
ິດ 20295
ดุ 20296
你这是 20297
初の 20298
るんですか 20299
добав 20300
뭘 20301
可以通过 20302
สมัย 20303
みた 20304
กลับบ้าน 20305
كۆ 20306
僕も 20307
当日 20308
결국 20309
尾巴 20310
▁giam 20311
ன்ற 20312
قە 20313
攒 20314
бул 20315
我这边是专业办理银行贷款的 20316
치는 20317
▁အဲ့လို 20318
审理 20319
してくれる 20320
▁good 20321
誤 20322
幸运 20323
聖 20324
你俩 20325
変わる 20326
থা 20327
শেষ 20328
▁ayah 20329
大码 20330
约定 20331
いますね 20332
对手 20333
부산 20334
Si 20335
笑了 20336
キン 20337
丧 20338
▁mẫu 20339
狭 20340
屌 20341
引导 20342
หมดเลย 20343
නවා 20344
外卖 20345
一批 20346
どうやって 20347
ழு 20348
ไทยรัฐทีวี 20349
陌生 20350
ત્ 20351
ときは 20352
▁عشر 20353
面试 20354
惯 20355
若是 20356
四七 20357
有好多 20358
▁kantor 20359
作为一个 20360
▁disebut 20361
▁پڑھ 20362
انه 20363
بع 20364
По 20365
再再 20366
这样说 20367
棵 20368
bos 20369
いるのは 20370
在那边 20371
そこから 20372
上手 20373
డ్ 20374
食堂 20375
显然 20376
रण 20377
tong 20378
бит 20379
关注一下 20380
ป้าย 20381
借款人 20382
妨 20383
без 20384
▁бизнес 20385
みたいに 20386
了解到 20387
شۇنداق 20388
リスク 20389
யில் 20390
买东西 20391
▁나왔 20392
ខ្ញុំ 20393
七四 20394
変え 20395
발생 20396
이후 20397
▁खाने 20398
ữ 20399
Co 20400
工商银行 20401
▁거는 20402
гляд 20403
里边儿 20404
二十五号 20405
长城 20406
ものは 20407
を行って 20408
इसे 20409
้อย 20410
分かった 20411
ุด 20412
▁پسند 20413
감독 20414
每次都 20415
您是在 20416
やす 20417
さない 20418
ダンス 20419
찌 20420
を行い 20421
เสริม 20422
бі 20423
抓住 20424
▁بولغان 20425
课堂 20426
签字 20427
考虑一下 20428
▁قیمت 20429
你们两个 20430
ىشى 20431
поселок 20432
обязательно 20433
▁استعمال 20434
哪家 20435
писал 20436
励 20437
没有其他 20438
하구 20439
вез 20440
すこと 20441
尤其 20442
从来没有 20443
の影響 20444
라이 20445
стью 20446
చి 20447
▁sulit 20448
きています 20449
冤 20450
สูตร 20451
rol 20452
ਹਿ 20453
那麼 20454
遺体 20455
を引き 20456
保険 20457
珍惜 20458
சே 20459
哪个区 20460
主角 20461
▁بچ 20462
▁yakin 20463
ایت 20464
一时 20465
真っ 20466
路与 20467
cah 20468
财政 20469
mili 20470
发给您 20471
▁đứng 20472
市区 20473
当事人 20474
ွေး 20475
聞こえ 20476
どういうこと 20477
▁سکتے 20478
幺幺九 20479
คลอง 20480
วัยรุ่น 20481
ထဲ 20482
▁lái 20483
압 20484
집에서 20485
ป่วย 20486
anggap 20487
看完 20488
一二三 20489
ดังนั้น 20490
是这样子 20491
以后呢 20492
ത 20493
放下 20494
درس 20495
▁گئے 20496
公式 20497
인터넷 20498
▁problem 20499
段階 20500
すばらしい 20501
维持 20502
▁mahu 20503
벽 20504
▁lá 20505
差し 20506
▁ano 20507
เรื่อย 20508
кроме 20509
ĩ 20510
劣 20511
▁sàng 20512
шестьдесят 20513
五十万 20514
Su 20515
续费 20516
买过 20517
車が 20518
财产 20519
最早 20520
▁chân 20521
ଜି 20522
сай 20523
วะ 20524
膝 20525
သည် 20526
てくれる 20527
いるので 20528
Anda 20529
чист 20530
补贴 20531
▁vượt 20532
ยังไม่ได้ 20533
▁لگا 20534
在那儿 20535
疯狂 20536
▁giống 20537
활동 20538
ラーメン 20539
thành 20540
යක් 20541
铠 20542
一间 20543
淘 20544
いるという 20545
ඇ 20546
再加上 20547
bb 20548
ছিলাম 20549
mohon 20550
ワールドカップ 20551
インド 20552
▁menyatakan 20553
த்தா 20554
확인 20555
привет 20556
っち 20557
掘 20558
▁있다고 20559
彼此 20560
▁тысячи 20561
역시 20562
ডি 20563
▁deh 20564
▁گے۔ 20565
ារ 20566
なった 20567
宵 20568
あい 20569
lengkap 20570
তাদের 20571
මු 20572
三星 20573
ภู 20574
▁நல்ல 20575
被害者 20576
制定 20577
そろ 20578
导演 20579
やすく 20580
كار 20581
ӣ 20582
▁pria 20583
上衣 20584
ごめん 20585
每月 20586
扣除 20587
研发 20588
中國 20589
组合 20590
大夫 20591
อาชีพ 20592
ウェ 20593
▁призна 20594
哭了 20595
听日 20596
差距 20597
肿 20598
ื่อ 20599
▁nomor 20600
읽 20601
ница 20602
战场 20603
这段时间 20604
ホーム 20605
ۇپ 20606
▁dahil 20607
력이 20608
けた 20609
审判 20610
怎么这么 20611
▁cải 20612
ยื่น 20613
bahagia 20614
指数 20615
ходят 20616
жер 20617
较好 20618
▁isu 20619
修理 20620
あなたの 20621
係啊 20622
เกาะ 20623
二十年 20624
▁mã 20625
ディー 20626
▁اسے 20627
들었 20628
クション 20629
사람은 20630
通報 20631
телей 20632
纪念 20633
▁никак 20634
อาจ 20635
шир 20636
ที่สําคัญ 20637
imni 20638
车贷 20639
分から 20640
まえ 20641
เกษตร 20642
เส้นทาง 20643
ユ 20644
हाल 20645
找回 20646
により 20647
关掉 20648
နှစ် 20649
纷纷 20650
▁которой 20651
ขวัญ 20652
障 20653
三岁 20654
萬 20655
ซอย 20656
▁बंद 20657
が出る 20658
みましょう 20659
小程序 20660
这个活动 20661
राष्ट्र 20662
人気の 20663
入れた 20664
唱个 20665
▁எது 20666
口语 20667
まれて 20668
棍 20669
羡慕 20670
тек 20671
いいね 20672
ทางด้าน 20673
باید 20674
ກະ 20675
クル 20676
คนไทย 20677
▁môn 20678
せない 20679
近日 20680
二十九 20681
工場 20682
ခံ 20683
봐야 20684
医保 20685
เนอะ 20686
解説 20687
▁сама 20688
ตรงนั้น 20689
起码 20690
째 20691
ىمىز 20692
كما 20693
ball 20694
руш 20695
我只能 20696
ंच 20697
▁جاتا 20698
先不打扰您了 20699
▁sport 20700
佛山 20701
потреб 20702
ห่าง 20703
៉ 20704
amiz 20705
摄像头 20706
ិត 20707
尴尬 20708
සු 20709
のではないか 20710
普遍 20711
でしたが 20712
みました 20713
僕が 20714
你的意思 20715
ยาง 20716
詳しく 20717
多数 20718
▁chăm 20719
逢 20720
哎哎 20721
又没 20722
▁उनको 20723
لۇق 20724
来进行 20725
конечно 20726
第一时间 20727
送り 20728
خدم 20729
▁нашей 20730
हरू 20731
폐 20732
把你的 20733
ám 20734
请讲 20735
嫌疑人 20736
▁ketiga 20737
ร่างกาย 20738
原来是 20739
ซา 20740
▁کھا 20741
رح 20742
▁dki 20743
▁kampung 20744
▁لأ 20745
đang 20746
侍 20747
jem 20748
खे 20749
跃 20750
事実 20751
▁cầm 20752
▁पहुंच 20753
ぱ 20754
app 20755
男が 20756
มากขึ้น 20757
เสี่ยง 20758
ood 20759
我要是 20760
ジー 20761
▁муж 20762
分数 20763
ったこと 20764
ปลาย 20765
အား 20766
最后一个 20767
▁berse 20768
づけ 20769
сим 20770
仍在 20771
祝你 20772
障害 20773
制裁 20774
▁kang 20775
鉴 20776
即将 20777
▁것으로 20778
▁mencapai 20779
덕 20780
▁perjalanan 20781
ビール 20782
フル 20783
เรือน 20784
义务 20785
ဖို့ 20786
นั่นเอง 20787
にくい 20788
向上 20789
什么样 20790
▁पूरी 20791
දු 20792
執 20793
你咋 20794
听着 20795
那我现在 20796
پن 20797
▁पूछ 20798
成交 20799
簡単に 20800
urut 20801
▁получил 20802
龄 20803
نې 20804
あんた 20805
emang 20806
生きて 20807
uji 20808
奏 20809
すぎる 20810
▁பிர 20811
▁टाइम 20812
ด่า 20813
来月 20814
con 20815
玩意儿 20816
▁chủng 20817
କେ 20818
廃 20819
서로 20820
もらえ 20821
很清楚 20822
வீ 20823
たんですけど 20824
叶修 20825
一堆 20826
▁thụ 20827
关了 20828
読み 20829
専 20830
跳舞 20831
Ra 20832
தோ 20833
๑๒ 20834
▁lào 20835
록 20836
好奇 20837
そこまで 20838
前回 20839
主播 20840
▁говоря 20841
었던 20842
ట్ట 20843
ออ 20844
полит 20845
ရဲ့ 20846
十字 20847
半夜 20848
▁있으 20849
대통령 20850
ফি 20851
▁мои 20852
生徒 20853
打架 20854
不该 20855
▁lapangan 20856
พันธุ์ 20857
道德 20858
这是我们 20859
を進めて 20860
▁មិន 20861
と思いますね 20862
మే 20863
基于 20864
卒業 20865
いたのは 20866
ਜਾ 20867
萍 20868
ลบ 20869
拿出 20870
氧 20871
一级 20872
誰も 20873
発射 20874
చ్చ 20875
очку 20876
生病 20877
するという 20878
ませんか 20879
葫芦 20880
шей 20881
涯 20882
考生 20883
线路 20884
僕の 20885
▁можем 20886
を与え 20887
事態 20888
ミス 20889
の方に 20890
▁مختلف 20891
発言 20892
鹰 20893
必须得 20894
売り 20895
최근 20896
初めての 20897
นี้นะคะ 20898
请问你 20899
ほん 20900
為什麼 20901
玩意 20902
陕西 20903
蔬菜 20904
颇 20905
欲しい 20906
এটি 20907
णा 20908
фер 20909
▁senang 20910
▁গিয়ে 20911
결과 20912
체육 20913
แชร์ 20914
โควิด 20915
죄 20916
给予 20917
भू 20918
ข้อหา 20919
сот 20920
一直没有 20921
还是什么 20922
北方 20923
这东西 20924
长款 20925
绳 20926
还不是 20927
你不知道 20928
当地的 20929
▁याद 20930
แพร่ 20931
案子 20932
敏感 20933
▁હતી 20934
ших 20935
Bugun 20936
ருக்கு 20937
ぁ 20938
ให้ได้ 20939
ますけど 20940
жан 20941
单身 20942
▁ভালো 20943
ผู้ก่อเหตุ 20944
ความผิด 20945
▁satunya 20946
急に 20947
활 20948
あれは 20949
นักท่องเที่ยว 20950
▁छोड़ 20951
فکر 20952
보니 20953
なもの 20954
лез 20955
爸爸妈妈 20956
수업 20957
иях 20958
▁persen 20959
▁सकती 20960
ตําแหน่ง 20961
就會 20962
женщин 20963
今天早上 20964
▁यात्रा 20965
羞 20966
実現 20967
মান 20968
ผี 20969
คอย 20970
தை 20971
祈 20972
不考虑 20973
สัปดาห์ 20974
hitung 20975
इससे 20976
▁dừng 20977
силь 20978
測 20979
จะมีการ 20980
的姓名 20981
необходимо 20982
طة 20983
感覚 20984
유명 20985
什么地方 20986
З 20987
也不错 20988
假期 20989
приятн 20990
село 20991
ਵਿ 20992
ก็จะมี 20993
혜 20994
انتخاب 20995
द्ध 20996
수있 20997
▁sung 20998
▁сильно 20999
หวาน 21000
려면 21001
▁putih 21002
韦 21003
举行 21004
[...]
